{"0": "!", "1": "\"", "2": "#", "3": "$", "4": "%", "5": "&", "6": "'", "7": "(", "8": ")", "9": "*", "10": "+", "11": ",", "12": "-", "13": ".", "14": "/", "15": "0", "16": "1", "17": "2", "18": "3", "19": "4", "20": "5", "21": "6", "22": "7", "23": "8", "24": "9", "25": ":", "26": ";", "27": "<", "28": "=", "29": ">", "30": "?", "31": "@", "32": "A", "33": "B", "34": "C", "35": "D", "36": "E", "37": "F", "38": "G", "39": "H", "40": "I", "41": "J", "42": "K", "43": "L", "44": "M", "45": "N", "46": "O", "47": "P", "48": "Q", "49": "R", "50": "S", "51": "T", "52": "U", "53": "V", "54": "W", "55": "X", "56": "Y", "57": "Z", "58": "[", "59": "\\", "60": "]", "61": "^", "62": "_", "63": "`", "64": "a", "65": "b", "66": "c", "67": "d", "68": "e", "69": "f", "70": "g", "71": "h", "72": "i", "73": "j", "74": "k", "75": "l", "76": "m", "77": "n", "78": "o", "79": "p", "80": "q", "81": "r", "82": "s", "83": "t", "84": "u", "85": "v", "86": "w", "87": "x", "88": "y", "89": "z", "90": "{", "91": "|", "92": "}", "93": "~", "94": "\u00a1", "95": "\u00a2", "96": "\u00a3", "97": "\u00a4", "98": "\u00a5", "99": "\u00a6", "100": "\u00a7", "101": "\u00a8", "102": "\u00a9", "103": "\u00aa", "104": "\u00ab", "105": "\u00ac", "106": "\u00ae", "107": "\u00af", "108": "\u00b0", "109": "\u00b1", "110": "\u00b2", "111": "\u00b3", "112": "\u00b4", "113": "\u00b5", "114": "\u00b6", "115": "\u00b7", "116": "\u00b8", "117": "\u00b9", "118": "\u00ba", "119": "\u00bb", "120": "\u00bc", "121": "\u00bd", "122": "\u00be", "123": "\u00bf", "124": "\u00c0", "125": "\u00c1", "126": "\u00c2", "127": "\u00c3", "128": "\u00c4", "129": "\u00c5", "130": "\u00c6", "131": "\u00c7", "132": "\u00c8", "133": "\u00c9", "134": "\u00ca", "135": "\u00cb", "136": "\u00cc", "137": "\u00cd", "138": "\u00ce", "139": "\u00cf", "140": "\u00d0", "141": "\u00d1", "142": "\u00d2", "143": "\u00d3", "144": "\u00d4", "145": "\u00d5", "146": "\u00d6", "147": "\u00d7", "148": "\u00d8", "149": "\u00d9", "150": "\u00da", "151": "\u00db", "152": "\u00dc", "153": "\u00dd", "154": "\u00de", "155": "\u00df", "156": "\u00e0", "157": "\u00e1", "158": "\u00e2", "159": "\u00e3", "160": "\u00e4", "161": "\u00e5", "162": "\u00e6", "163": "\u00e7", "164": "\u00e8", "165": "\u00e9", "166": "\u00ea", "167": "\u00eb", "168": "\u00ec", "169": "\u00ed", "170": "\u00ee", "171": "\u00ef", "172": "\u00f0", "173": "\u00f1", "174": "\u00f2", "175": "\u00f3", "176": "\u00f4", "177": "\u00f5", "178": "\u00f6", "179": "\u00f7", "180": "\u00f8", "181": "\u00f9", "182": "\u00fa", "183": "\u00fb", "184": "\u00fc", "185": "\u00fd", "186": "\u00fe", "187": "\u00ff", "188": "\u0100", "189": "\u0101", "190": "\u0102", "191": "\u0103", "192": "\u0104", "193": "\u0105", "194": "\u0106", "195": "\u0107", "196": "\u0108", "197": "\u0109", "198": "\u010a", "199": "\u010b", "200": "\u010c", "201": "\u010d", "202": "\u010e", "203": "\u010f", "204": "\u0110", "205": "\u0111", "206": "\u0112", "207": "\u0113", "208": "\u0114", "209": "\u0115", "210": "\u0116", "211": "\u0117", "212": "\u0118", "213": "\u0119", "214": "\u011a", "215": "\u011b", "216": "\u011c", "217": "\u011d", "218": "\u011e", "219": "\u011f", "220": "\u0120", "221": "\u0121", "222": "\u0122", "223": "\u0123", "224": "\u0124", "225": "\u0125", "226": "\u0126", "227": "\u0127", "228": "\u0128", "229": "\u0129", "230": "\u012a", "231": "\u012b", "232": "\u012c", "233": "\u012d", "234": "\u012e", "235": "\u012f", "236": "\u0130", "237": "\u0131", "238": "\u0132", "239": "\u0133", "240": "\u0134", "241": "\u0135", "242": "\u0136", "243": "\u0137", "244": "\u0138", "245": "\u0139", "246": "\u013a", "247": "\u013b", "248": "\u013c", "249": "\u013d", "250": "\u013e", "251": "\u013f", "252": "\u0140", "253": "\u0141", "254": "\u0142", "255": "\u0143", "256": "\u0120t", "257": "\u0120a", "258": "he", "259": "in", "260": "re", "261": "on", "262": "\u0120the", "263": "er", "264": "\u0120s", "265": "at", "266": "\u0120w", "267": "\u0120o", "268": "en", "269": "\u0120c", "270": "it", "271": "is", "272": "an", "273": "or", "274": "es", "275": "\u0120b", "276": "ed", "277": "\u0120f", "278": "ing", "279": "\u0120p", "280": "ou", "281": "\u0120an", "282": "al", "283": "ar", "284": "\u0120to", "285": "\u0120m", "286": "\u0120of", "287": "\u0120in", "288": "\u0120d", "289": "\u0120h", "290": "\u0120and", "291": "ic", "292": "as", "293": "le", "294": "\u0120th", "295": "ion", "296": "om", "297": "ll", "298": "ent", "299": "\u0120n", "300": "\u0120l", "301": "st", "302": "\u0120re", "303": "ve", "304": "\u0120e", "305": "ro", "306": "ly", "307": "\u0120be", "308": "\u0120g", "309": "\u0120T", "310": "ct", "311": "\u0120S", "312": "id", "313": "ot", "314": "\u0120I", "315": "ut", "316": "et", "317": "\u0120A", "318": "\u0120is", "319": "\u0120on", "320": "im", "321": "am", "322": "ow", "323": "ay", "324": "ad", "325": "se", "326": "\u0120that", "327": "\u0120C", "328": "ig", "329": "\u0120for", "330": "ac", "331": "\u0120y", "332": "ver", "333": "ur", "334": "\u0120u", "335": "ld", "336": "\u0120st", "337": "\u0120M", "338": "'s", "339": "\u0120he", "340": "\u0120it", "341": "ation", "342": "ith", "343": "ir", "344": "ce", "345": "\u0120you", "346": "il", "347": "\u0120B", "348": "\u0120wh", "349": "ol", "350": "\u0120P", "351": "\u0120with", "352": "\u01201", "353": "ter", "354": "ch", "355": "\u0120as", "356": "\u0120we", "357": "\u0120(", "358": "nd", "359": "ill", "360": "\u0120D", "361": "if", "362": "\u01202", "363": "ag", "364": "ers", "365": "ke", "366": "\u0120\"", "367": "\u0120H", "368": "em", "369": "\u0120con", "370": "\u0120W", "371": "\u0120R", "372": "her", "373": "\u0120was", "374": "\u0120r", "375": "od", "376": "\u0120F", "377": "ul", "378": "ate", "379": "\u0120at", "380": "ri", "381": "pp", "382": "ore", "383": "\u0120The", "384": "\u0120se", "385": "us", "386": "\u0120pro", "387": "\u0120ha", "388": "um", "389": "\u0120are", "390": "\u0120de", "391": "ain", "392": "and", "393": "\u0120or", "394": "igh", "395": "est", "396": "ist", "397": "ab", "398": "rom", "399": "\u0120N", "400": "th", "401": "\u0120com", "402": "\u0120G", "403": "un", "404": "op", "405": "00", "406": "\u0120L", "407": "\u0120not", "408": "ess", "409": "\u0120ex", "410": "\u0120v", "411": "res", "412": "\u0120E", "413": "ew", "414": "ity", "415": "ant", "416": "\u0120by", "417": "el", "418": "os", "419": "ort", "420": "oc", "421": "qu", "422": "\u0120from", "423": "\u0120have", "424": "\u0120su", "425": "ive", "426": "ould", "427": "\u0120sh", "428": "\u0120this", "429": "nt", "430": "ra", "431": "pe", "432": "ight", "433": "art", "434": "ment", "435": "\u0120al", "436": "ust", "437": "end", "438": "--", "439": "all", "440": "\u0120O", "441": "ack", "442": "\u0120ch", "443": "\u0120le", "444": "ies", "445": "red", "446": "ard", "447": "\u00e2\u0122", "448": "out", "449": "\u0120J", "450": "\u0120ab", "451": "ear", "452": "iv", "453": "ally", "454": "our", "455": "ost", "456": "gh", "457": "pt", "458": "\u0120pl", "459": "ast", "460": "\u0120can", "461": "ak", "462": "ome", "463": "ud", "464": "The", "465": "\u0120his", "466": "\u0120do", "467": "\u0120go", "468": "\u0120has", "469": "ge", "470": "'t", "471": "\u0120U", "472": "rou", "473": "\u0120sa", "474": "\u0120j", "475": "\u0120but", "476": "\u0120wor", "477": "\u0120all", "478": "ect", "479": "\u0120k", "480": "ame", "481": "\u0120will", "482": "ok", "483": "\u0120whe", "484": "\u0120they", "485": "ide", "486": "01", "487": "ff", "488": "ich", "489": "pl", "490": "ther", "491": "\u0120tr", "492": "..", "493": "\u0120int", "494": "ie", "495": "ure", "496": "age", "497": "\u0120ne", "498": "ial", "499": "ap", "500": "ine", "501": "ice", "502": "\u0120me", "503": "\u0120out", "504": "ans", "505": "one", "506": "ong", "507": "ions", "508": "\u0120who", "509": "\u0120K", "510": "\u0120up", "511": "\u0120their", "512": "\u0120ad", "513": "\u01203", "514": "\u0120us", "515": "ated", "516": "ous", "517": "\u0120more", "518": "ue", "519": "og", "520": "\u0120St", "521": "ind", "522": "ike", "523": "\u0120so", "524": "ime", "525": "per", "526": ".\"", "527": "ber", "528": "iz", "529": "act", "530": "\u0120one", "531": "\u0120said", "532": "\u0120-", "533": "are", "534": "\u0120your", "535": "cc", "536": "\u0120Th", "537": "\u0120cl", "538": "ep", "539": "ake", "540": "able", "541": "ip", "542": "\u0120cont", "543": "\u0120which", "544": "ia", "545": "\u0120im", "546": "\u0120about", "547": "\u0120were", "548": "very", "549": "ub", "550": "\u0120had", "551": "\u0120en", "552": "\u0120comp", "553": ",\"", "554": "\u0120In", "555": "\u0120un", "556": "\u0120ag", "557": "ire", "558": "ace", "559": "au", "560": "ary", "561": "\u0120would", "562": "ass", "563": "ry", "564": "\u0120\u00e2\u0122", "565": "cl", "566": "ook", "567": "ere", "568": "so", "569": "\u0120V", "570": "ign", "571": "ib", "572": "\u0120off", "573": "\u0120te", "574": "ven", "575": "\u0120Y", "576": "ile", "577": "ose", "578": "ite", "579": "orm", "580": "\u0120201", "581": "\u0120res", "582": "\u0120man", "583": "\u0120per", "584": "\u0120other", "585": "ord", "586": "ult", "587": "\u0120been", "588": "\u0120like", "589": "ase", "590": "ance", "591": "ks", "592": "ays", "593": "own", "594": "ence", "595": "\u0120dis", "596": "ction", "597": "\u0120any", "598": "\u0120app", "599": "\u0120sp", "600": "int", "601": "ress", "602": "ations", "603": "ail", "604": "\u01204", "605": "ical", "606": "\u0120them", "607": "\u0120her", "608": "ount", "609": "\u0120Ch", "610": "\u0120ar", "611": "\u0120if", "612": "\u0120there", "613": "\u0120pe", "614": "\u0120year", "615": "av", "616": "\u0120my", "617": "\u0120some", "618": "\u0120when", "619": "ough", "620": "ach", "621": "\u0120than", "622": "ru", "623": "ond", "624": "ick", "625": "\u0120over", "626": "vel", "627": "\u0120qu", "628": "\u010a\u010a", "629": "\u0120sc", "630": "reat", "631": "ree", "632": "\u0120It", "633": "ound", "634": "port", "635": "\u0120also", "636": "\u0120part", "637": "fter", "638": "\u0120kn", "639": "\u0120bec", "640": "\u0120time", "641": "ens", "642": "\u01205", "643": "ople", "644": "\u0120what", "645": "\u0120no", "646": "du", "647": "mer", "648": "ang", "649": "\u0120new", "650": "----", "651": "\u0120get", "652": "ory", "653": "ition", "654": "ings", "655": "\u0120just", "656": "\u0120into", "657": "\u01200", "658": "ents", "659": "ove", "660": "te", "661": "\u0120people", "662": "\u0120pre", "663": "\u0120its", "664": "\u0120rec", "665": "\u0120tw", "666": "ian", "667": "irst", "668": "ark", "669": "ors", "670": "\u0120work", "671": "ade", "672": "ob", "673": "\u0120she", "674": "\u0120our", "675": "wn", "676": "ink", "677": "lic", "678": "\u012019", "679": "\u0120He", "680": "ish", "681": "nder", "682": "ause", "683": "\u0120him", "684": "ons", "685": "\u0120[", "686": "\u0120ro", "687": "form", "688": "ild", "689": "ates", "690": "vers", "691": "\u0120only", "692": "oll", "693": "\u0120spe", "694": "ck", "695": "ell", "696": "amp", "697": "\u0120acc", "698": "\u0120bl", "699": "ious", "700": "urn", "701": "ft", "702": "ood", "703": "\u0120how", "704": "hed", "705": "\u0120'", "706": "\u0120after", "707": "aw", "708": "\u0120att", "709": "ov", "710": "ne", "711": "\u0120play", "712": "erv", "713": "ict", "714": "\u0120could", "715": "itt", "716": "\u0120am", "717": "\u0120first", "718": "\u01206", "719": "\u0120act", "720": "\u0120$", "721": "ec", "722": "hing", "723": "ual", "724": "ull", "725": "\u0120comm", "726": "oy", "727": "old", "728": "ces", "729": "ater", "730": "\u0120fe", "731": "\u0120bet", "732": "we", "733": "iff", "734": "\u0120two", "735": "ock", "736": "\u0120back", "737": ").", "738": "ident", "739": "\u0120under", "740": "rough", "741": "sel", "742": "xt", "743": "\u0120may", "744": "round", "745": "\u0120po", "746": "ph", "747": "iss", "748": "\u0120des", "749": "\u0120most", "750": "\u0120did", "751": "\u0120add", "752": "ject", "753": "\u0120inc", "754": "fore", "755": "\u0120pol", "756": "ont", "757": "\u0120again", "758": "clud", "759": "tern", "760": "\u0120know", "761": "\u0120need", "762": "\u0120cons", "763": "\u0120co", "764": "\u0120.", "765": "\u0120want", "766": "\u0120see", "767": "\u01207", "768": "ning", "769": "iew", "770": "\u0120This", "771": "ced", "772": "\u0120even", "773": "\u0120ind", "774": "ty", "775": "\u0120We", "776": "ath", "777": "\u0120these", "778": "\u0120pr", "779": "\u0120use", "780": "\u0120because", "781": "\u0120fl", "782": "ng", "783": "\u0120now", "784": "\u0120\u00e2\u0122\u0135", "785": "com", "786": "ise", "787": "\u0120make", "788": "\u0120then", "789": "ower", "790": "\u0120every", "791": "\u0120Un", "792": "\u0120sec", "793": "oss", "794": "uch", "795": "\u0120em", "796": "\u0120=", "797": "\u0120Re", "798": "ied", "799": "rit", "800": "\u0120inv", "801": "lect", "802": "\u0120supp", "803": "ating", "804": "\u0120look", "805": "man", "806": "pect", "807": "\u01208", "808": "row", "809": "\u0120bu", "810": "\u0120where", "811": "ific", "812": "\u0120years", "813": "ily", "814": "\u0120diff", "815": "\u0120should", "816": "\u0120rem", "817": "Th", "818": "In", "819": "\u0120ev", "820": "day", "821": "'re", "822": "rib", "823": "\u0120rel", "824": "ss", "825": "\u0120def", "826": "\u0120right", "827": "\u0120sy", "828": "),", "829": "les", "830": "000", "831": "hen", "832": "\u0120through", "833": "\u0120Tr", "834": "__", "835": "\u0120way", "836": "\u0120don", "837": "\u0120,", "838": "\u012010", "839": "ased", "840": "\u0120ass", "841": "ublic", "842": "\u0120reg", "843": "\u0120And", "844": "ix", "845": "\u0120very", "846": "\u0120includ", "847": "other", "848": "\u0120imp", "849": "oth", "850": "\u0120sub", "851": "\u0120\u00e2\u0122\u0136", "852": "\u0120being", "853": "arg", "854": "\u0120Wh", "855": "==", "856": "ible", "857": "\u0120does", "858": "ange", "859": "ram", "860": "\u01209", "861": "ert", "862": "ps", "863": "ited", "864": "ational", "865": "\u0120br", "866": "\u0120down", "867": "\u0120many", "868": "aking", "869": "\u0120call", "870": "uring", "871": "ities", "872": "\u0120ph", "873": "ics", "874": "als", "875": "\u0120dec", "876": "ative", "877": "ener", "878": "\u0120before", "879": "ility", "880": "\u0120well", "881": "\u0120much", "882": "erson", "883": "\u0120those", "884": "\u0120such", "885": "\u0120ke", "886": "\u0120end", "887": "\u0120But", "888": "ason", "889": "ting", "890": "\u0120long", "891": "ef", "892": "\u0120think", "893": "ys", "894": "\u0120bel", "895": "\u0120sm", "896": "its", "897": "ax", "898": "\u0120own", "899": "\u0120prov", "900": "\u0120set", "901": "ife", "902": "ments", "903": "ble", "904": "ward", "905": "\u0120show", "906": "\u0120pres", "907": "ms", "908": "omet", "909": "\u0120ob", "910": "\u0120say", "911": "\u0120Sh", "912": "ts", "913": "ful", "914": "\u0120eff", "915": "\u0120gu", "916": "\u0120inst", "917": "und", "918": "ren", "919": "cess", "920": "\u0120ent", "921": "\u0120You", "922": "\u0120good", "923": "\u0120start", "924": "ince", "925": "\u0120made", "926": "tt", "927": "stem", "928": "olog", "929": "up", "930": "\u0120|", "931": "ump", "932": "\u0120hel", "933": "vern", "934": "ular", "935": "ually", "936": "\u0120ac", "937": "\u0120mon", "938": "\u0120last", "939": "\u0120200", "940": "10", "941": "\u0120stud", "942": "ures", "943": "\u0120Ar", "944": "self", "945": "ars", "946": "meric", "947": "ues", "948": "cy", "949": "\u0120min", "950": "ollow", "951": "\u0120col", "952": "io", "953": "\u0120mod", "954": "\u0120count", "955": "\u0120Com", "956": "hes", "957": "\u0120fin", "958": "air", "959": "ier", "960": "\u00e2\u0122\u0136", "961": "read", "962": "ank", "963": "atch", "964": "ever", "965": "\u0120str", "966": "\u0120point", "967": "ork", "968": "\u0120New", "969": "\u0120sur", "970": "ool", "971": "alk", "972": "ement", "973": "\u0120used", "974": "ract", "975": "ween", "976": "\u0120same", "977": "oun", "978": "\u0120Al", "979": "ci", "980": "\u0120differe", "981": "\u0120while", "982": "--------", "983": "\u0120game", "984": "cept", "985": "\u0120sim", "986": "...", "987": "\u0120inter", "988": "ek", "989": "\u0120report", "990": "\u0120produ", "991": "\u0120still", "992": "led", "993": "ah", "994": "\u0120here", "995": "\u0120world", "996": "\u0120though", "997": "\u0120num", "998": "arch", "999": "imes", "1000": "ale", "1001": "\u0120Se", "1002": "\u0120If", "1003": "//", "1004": "\u0120Le", "1005": "\u0120ret", "1006": "\u0120ref", "1007": "\u0120trans", "1008": "ner", "1009": "ution", "1010": "ters", "1011": "\u0120take", "1012": "\u0120Cl", "1013": "\u0120conf", "1014": "way", "1015": "ave", "1016": "\u0120going", "1017": "\u0120sl", "1018": "ug", "1019": "\u0120Americ", "1020": "\u0120spec", "1021": "\u0120hand", "1022": "\u0120between", "1023": "ists", "1024": "\u0120De", "1025": "oot", "1026": "It", "1027": "\u0120ear", "1028": "\u0120against", "1029": "\u0120high", "1030": "gan", "1031": "az", "1032": "ather", "1033": "\u0120exp", "1034": "\u0120op", "1035": "\u0120ins", "1036": "\u0120gr", "1037": "\u0120help", "1038": "\u0120requ", "1039": "ets", "1040": "ins", "1041": "\u0120Pro", "1042": "ism", "1043": "\u0120found", "1044": "land", "1045": "ata", "1046": "uss", "1047": "ames", "1048": "\u0120person", "1049": "\u0120great", "1050": "pr", "1051": "\u0120sign", "1052": "\u0120An", "1053": "'ve", "1054": "\u0120somet", "1055": "\u0120ser", "1056": "hip", "1057": "\u0120run", "1058": "\u0120:", "1059": "\u0120ter", "1060": "irect", "1061": "\u0120follow", "1062": "\u0120det", "1063": "ices", "1064": "\u0120find", "1065": "12", "1066": "\u0120mem", "1067": "\u0120cr", "1068": "ered", "1069": "ex", "1070": "\u0120ext", "1071": "uth", "1072": "ense", "1073": "co", "1074": "\u0120team", "1075": "ving", "1076": "ouse", "1077": "ash", "1078": "att", "1079": "ved", "1080": "\u0120system", "1081": "\u0120As", "1082": "der", "1083": "ives", "1084": "min", "1085": "\u0120lead", "1086": "\u0120Bl", "1087": "cent", "1088": "\u0120around", "1089": "\u0120govern", "1090": "\u0120cur", "1091": "velop", "1092": "any", "1093": "\u0120cour", "1094": "alth", "1095": "ages", "1096": "ize", "1097": "\u0120car", "1098": "ode", "1099": "\u0120law", "1100": "\u0120read", "1101": "'m", "1102": "con", "1103": "\u0120real", "1104": "\u0120support", "1105": "\u012012", "1106": "....", "1107": "\u0120really", "1108": "ness", "1109": "\u0120fact", "1110": "\u0120day", "1111": "\u0120both", "1112": "ying", "1113": "\u0120serv", "1114": "\u0120For", "1115": "\u0120three", "1116": "\u0120wom", "1117": "\u0120med", "1118": "ody", "1119": "\u0120They", "1120": "50", "1121": "\u0120exper", "1122": "ton", "1123": "\u0120each", "1124": "akes", "1125": "\u0120che", "1126": "\u0120cre", "1127": "ines", "1128": "\u0120rep", "1129": "19", "1130": "gg", "1131": "illion", "1132": "\u0120grou", "1133": "ute", "1134": "ik", "1135": "We", "1136": "get", "1137": "ER", "1138": "\u0120met", "1139": "\u0120says", "1140": "ox", "1141": "\u0120during", "1142": "ern", "1143": "ized", "1144": "ared", "1145": "\u0120fam", "1146": "ically", "1147": "\u0120happ", "1148": "\u0120Is", "1149": "\u0120char", "1150": "med", "1151": "vent", "1152": "\u0120gener", "1153": "ient", "1154": "ple", "1155": "iet", "1156": "rent", "1157": "11", "1158": "ves", "1159": "ption", "1160": "\u012020", "1161": "formation", "1162": "\u0120cor", "1163": "\u0120offic", "1164": "ield", "1165": "\u0120too", "1166": "ision", "1167": "\u0120inf", "1168": "\u0120Z", "1169": "the", "1170": "oad", "1171": "\u0120public", "1172": "\u0120prog", "1173": "ric", "1174": "**", "1175": "\u0120war", "1176": "\u0120power", "1177": "view", "1178": "\u0120few", "1179": "\u0120loc", "1180": "\u0120different", "1181": "\u0120state", "1182": "\u0120head", "1183": "'ll", "1184": "\u0120poss", "1185": "\u0120stat", "1186": "ret", "1187": "ants", "1188": "\u0120val", "1189": "\u0120iss", "1190": "\u0120cle", "1191": "ivers", "1192": "anc", "1193": "\u0120expl", "1194": "\u0120another", "1195": "\u0120Q", "1196": "\u0120av", "1197": "thing", "1198": "nce", "1199": "Wh", "1200": "\u0120child", "1201": "\u0120since", "1202": "ired", "1203": "less", "1204": "\u0120life", "1205": "\u0120develop", "1206": "ittle", "1207": "\u0120dep", "1208": "\u0120pass", "1209": "\u00e3\u0125", "1210": "\u0120turn", "1211": "orn", "1212": "This", "1213": "bers", "1214": "ross", "1215": "\u0120Ad", "1216": "\u0120fr", "1217": "\u0120resp", "1218": "\u0120second", "1219": "oh", "1220": "\u0120/", "1221": "\u0120disc", "1222": "\u0120&", "1223": "\u0120something", "1224": "\u0120comple", "1225": "\u0120ed", "1226": "\u0120fil", "1227": "\u0120month", "1228": "aj", "1229": "uc", "1230": "\u0120government", "1231": "\u0120without", "1232": "\u0120leg", "1233": "\u0120dist", "1234": "\u0120put", "1235": "\u0120quest", "1236": "ann", "1237": "\u0120prot", "1238": "20", "1239": "\u0120never", "1240": "ience", "1241": "\u0120level", "1242": "\u0120art", "1243": "\u0120things", "1244": "\u0120might", "1245": "\u0120effect", "1246": "\u0120contro", "1247": "\u0120cent", "1248": "\u012018", "1249": "\u0120allow", "1250": "\u0120belie", "1251": "chool", "1252": "ott", "1253": "\u0120incre", "1254": "\u0120feel", "1255": "\u0120result", "1256": "\u0120lot", "1257": "\u0120fun", "1258": "ote", "1259": "\u0120ty", "1260": "erest", "1261": "\u0120contin", "1262": "\u0120using", "1263": "\u0120big", "1264": "201", "1265": "\u0120ask", "1266": "\u0120best", "1267": "\u0120)", "1268": "IN", "1269": "\u0120opp", "1270": "30", "1271": "\u0120number", "1272": "iness", "1273": "St", "1274": "lease", "1275": "\u0120ca", "1276": "\u0120must", "1277": "\u0120direct", "1278": "\u0120gl", "1279": "\u0120<", "1280": "\u0120open", "1281": "\u0120post", "1282": "\u0120come", "1283": "\u0120seem", "1284": "ording", "1285": "\u0120week", "1286": "ately", "1287": "ital", "1288": "\u0120el", "1289": "riend", "1290": "\u0120far", "1291": "\u0120tra", "1292": "inal", "1293": "\u0120pri", "1294": "\u0120US", "1295": "\u0120place", "1296": "\u0120form", "1297": "\u0120told", "1298": "\":", "1299": "ains", "1300": "ature", "1301": "\u0120Trump", "1302": "\u0120stand", "1303": "\u0120#", "1304": "ider", "1305": "\u0120Fr", "1306": "\u0120next", "1307": "\u0120soc", "1308": "\u0120pur", "1309": "\u0120let", "1310": "\u0120little", "1311": "\u0120hum", "1312": "\u0120i", "1313": "ron", "1314": "15", "1315": "\u012015", "1316": "\u0120commun", "1317": "\u0120mark", "1318": "\u0120There", "1319": "\u0120wr", "1320": "\u0120That", "1321": "\u0120information", "1322": "ways", "1323": "\u0120bus", "1324": "app", "1325": "\u0120invest", "1326": "me", "1327": "\u0120hard", "1328": "ained", "1329": "ead", "1330": "\u0120import", "1331": "\u0120appro", "1332": "\u0120test", "1333": "\u0120tri", "1334": "\u0120rest", "1335": "osed", "1336": "\u0120full", "1337": "\u0120care", "1338": "\u0120Sp", "1339": "\u0120case", "1340": "ON", "1341": "\u0120sk", "1342": "\u0120less", "1343": "\u0120+", "1344": "\u0120partic", "1345": "\u0120Pl", "1346": "ably", "1347": "uck", "1348": "ished", "1349": "chn", "1350": "be", "1351": "\u0120list", "1352": "ator", "1353": "\u0120top", "1354": "\u0120adv", "1355": "\u0120Be", "1356": "ruct", "1357": "\u0120dem", "1358": "ration", "1359": "ling", "1360": "gy", "1361": "reen", "1362": "ger", "1363": "\u0120home", "1364": "\u0120left", "1365": "\u0120better", "1366": "\u0120data", "1367": "\u012011", "1368": "\u0120attack", "1369": "\u0120proble", "1370": "line", "1371": "ards", "1372": "\u0120beh", "1373": "ral", "1374": "\u0120How", "1375": "\u0120She", "1376": "arge", "1377": "\u0120--", "1378": "://", "1379": "\u0120bro", "1380": "\u0120Ph", "1381": "ats", "1382": "\u0120build", "1383": "ww", "1384": "ided", "1385": "aim", "1386": "ases", "1387": "ency", "1388": "\u0120main", "1389": "ined", "1390": "\u0120including", "1391": "\u0120{", "1392": "\u0120got", "1393": "\u0120interest", "1394": "\u0120keep", "1395": "\u0120X", "1396": "\u0120eas", "1397": "aining", "1398": "\u0120class", "1399": "\u00e2\u0122\u00a6", "1400": "\u0120No", "1401": "\u0120var", "1402": "\u0120small", "1403": "ample", "1404": "AT", "1405": "\u0120ide", "1406": "\u0120So", "1407": "\u0120rece", "1408": "\u0120polit", "1409": "\u0120mov", "1410": "\u0120plan", "1411": "\u0120percent", "1412": "iving", "1413": "\u0120camp", "1414": "\u0120pay", "1415": "14", "1416": "sc", "1417": "ised", "1418": "\u0120unt", "1419": "oney", "1420": "ploy", "1421": "====", "1422": "\u0120didn", "1423": "\u0120Ind", "1424": "els", "1425": "ertain", "1426": "\u0120pos", "1427": "____", "1428": "iver", "1429": "\u0120process", "1430": "\u0120program", "1431": "ified", "1432": "\u0120Rep", "1433": "16", "1434": "uro", "1435": "ology", "1436": "atter", "1437": "ina", "1438": "\u0120name", "1439": "\u0120All", "1440": "\u0120four", "1441": "\u0120return", "1442": "vious", "1443": "bs", "1444": "\u0120called", "1445": "\u0120move", "1446": "\u0120Sc", "1447": "ird", "1448": "\u0120group", "1449": "\u0120bre", "1450": "\u0120men", "1451": "\u0120cap", "1452": "ten", "1453": "ee", "1454": "\u0120dri", "1455": "leg", "1456": "here", "1457": "uthor", "1458": "\u0120pat", "1459": "\u0120current", "1460": "ides", "1461": "\u0120pop", "1462": "to", "1463": "ention", "1464": "\u0120always", "1465": "\u0120mil", "1466": "\u0120women", "1467": "\u012016", "1468": "\u0120old", "1469": "iven", "1470": "raph", "1471": "\u0120Or", "1472": "ror", "1473": "ently", "1474": "\u0120near", "1475": "\u0120Ex", "1476": "ream", "1477": "sh", "1478": "\u012014", "1479": "\u0120free", "1480": "ission", "1481": "stand", "1482": "\u0120Con", "1483": "ality", "1484": "used", "1485": "13", "1486": "\u0120design", "1487": "\u0120change", "1488": "\u0120chang", "1489": "\u0120bo", "1490": "\u0120vis", "1491": "ember", "1492": "\u0120book", "1493": "ready", "1494": "\u0120kill", "1495": "25", "1496": "pped", "1497": "\u0120away", "1498": "\u0120able", "1499": "\u0120country", "1500": "\u0120const", "1501": "arn", "1502": "\u0120order", "1503": "AR", "1504": "ior", "1505": "ium", "1506": "orth", "1507": "18", "1508": "ailable", "1509": "\u0120sw", "1510": "\u0120million", "1511": "\u012013", "1512": "atic", "1513": "ted", "1514": "\u0120Go", "1515": "\u0120oper", "1516": "eng", "1517": "\u0120thing", "1518": "ajor", "1519": "conom", "1520": "\u0120Comm", "1521": "\u0120why", "1522": "ured", "1523": "ural", "1524": "\u0120school", "1525": "by", "1526": "\u0120Mar", "1527": "\u0120aff", "1528": "\u0120days", "1529": "\u0120ann", "1530": "ush", "1531": "ane", "1532": "If", "1533": "eg", "1534": "\u0120prof", "1535": "\u0120health", "1536": "outh", "1537": "But", "1538": "ional", "1539": ".,", "1540": "\u0120sol", "1541": "\u0120already", "1542": "\u012030", "1543": "\u0120charact", "1544": "He", "1545": "\u0120friend", "1546": "ES", "1547": "ians", "1548": "icle", "1549": "'d", "1550": "\u0120On", "1551": "\u0120least", "1552": "\u0120prom", "1553": "\u0120dr", "1554": "\u0120hist", "1555": "ither", "1556": "\u0120est", "1557": "iqu", "1558": "17", "1559": "son", "1560": "\u0120tell", "1561": "\u0120talk", "1562": "ohn", "1563": "oint", "1564": "lection", "1565": "AN", "1566": "\u0120until", "1567": "augh", "1568": "\u0120later", "1569": "\u0120ve", "1570": "\u0120view", "1571": "ending", "1572": "ived", "1573": "\u0120word", "1574": "ware", "1575": "\u0120cost", "1576": "\u0120enough", "1577": "\u0120give", "1578": "\u0120United", "1579": "\u0120techn", "1580": "arent", "1581": "OR", "1582": "\u0120par", "1583": "\u0120Dr", "1584": "\u01202016", "1585": "rist", "1586": "ering", "1587": "\u0120\u00c2", "1588": "\u0120large", "1589": "side", "1590": "acy", "1591": "ccess", "1592": "\u0120win", "1593": "\u0120important", "1594": "\u0120199", "1595": "\u0120doesn", "1596": "\u012017", "1597": "\u0120business", "1598": "\u0120clear", "1599": "\u0120rese", "1600": "\",", "1601": "ury", "1602": "\u0120equ", "1603": "aster", "1604": "alf", "1605": "\u0120American", "1606": "nect", "1607": "\u0120expect", "1608": "iversity", "1609": "\u0120occ", "1610": "\u0120Fl", "1611": "\u0120kind", "1612": "\u0120mean", "1613": "\u0120past", "1614": "\u0120dev", "1615": "\u0120bas", "1616": "let", "1617": "raft", "1618": "\u0120organ", "1619": "\u0120del", "1620": "\u0120perform", "1621": "\u0120story", "1622": "\u0120season", "1623": "\u0120Col", "1624": "\u0120claim", "1625": "\u0120came", "1626": "\u0120within", "1627": "\u0120line", "1628": "\u0120project", "1629": "\u0120At", "1630": "\u0120control", "1631": "ended", "1632": "\u0120Sy", "1633": "\u0120air", "1634": "ization", "1635": "\u0120*", "1636": "ley", "1637": "\u0120money", "1638": "idd", "1639": "You", "1640": "for", "1641": "\u0120family", "1642": "\u0120making", "1643": "\u0120bit", "1644": "\u0120police", "1645": "\u0120happen", "1646": "\u0120vers", "1647": "ony", "1648": "uff", "1649": "\u0120When", "1650": "\u0120sit", "1651": "ideo", "1652": "lf", "1653": "ison", "1654": "\u0120sure", "1655": "gin", "1656": "\u0120appear", "1657": "\u0120light", "1658": "\u0120es", "1659": "of", "1660": "\u0120water", "1661": "\u0120times", "1662": "not", "1663": "\u0120grow", "1664": "\u0120company", "1665": "\u0120Te", "1666": "ows", "1667": "\u0120mar", "1668": "ource", "1669": "iol", "1670": "arm", "1671": "br", "1672": "\u0120example", "1673": "\u0120conc", "1674": "\u0120fore", "1675": "\u0120To", "1676": "pro", "1677": "EN", "1678": "ries", "1679": "\u012025", "1680": "\u0120Can", "1681": "ney", "1682": "\u0120actually", "1683": "\u0120ever", "1684": "urity", "1685": "aken", "1686": "aps", "1687": "\u0120tax", "1688": "\u0120major", "1689": "ama", "1690": "\u0120often", "1691": "eral", "1692": "\u0120human", "1693": "\u0120job", "1694": "ister", "1695": "\u0120available", "1696": "ocr", "1697": "enn", "1698": "aid", "1699": "ivid", "1700": "\u0120record", "1701": "?\"", "1702": "\u0120sing", "1703": "\u0120Am", "1704": "idence", "1705": "\u0120news", "1706": "ster", "1707": "\u0120econom", "1708": "\u0120following", "1709": "\u0120Br", "1710": "ising", "1711": "\u0120hour", "1712": "most", "1713": "ument", "1714": "\u0120sex", "1715": "\u0120desc", "1716": "\u0120become", "1717": "\u0120Ed", "1718": "\u0120took", "1719": "\u0120having", "1720": "\u0120product", "1721": "ault", "1722": "As", "1723": "aring", "1724": "\u0120means", "1725": "\u0120hop", "1726": "une", "1727": "\u0120cho", "1728": "\u0120certain", "1729": "\u0120non", "1730": "\u0120deal", "1731": "24", "1732": "lement", "1733": "oci", "1734": "ene", "1735": "\u0120side", "1736": "\u0120Pr", "1737": "\u0120May", "1738": "\u0120reason", "1739": "ued", "1740": "ched", "1741": "ulation", "1742": "\u0120elect", "1743": "\u0120official", "1744": "\u0120possible", "1745": "\u0120hold", "1746": "ands", "1747": "ots", "1748": "\u0120city", "1749": "ories", "1750": "\u0120sever", "1751": "\u0120children", "1752": "\u0120once", "1753": "\u0120activ", "1754": "ler", "1755": "\u0120night", "1756": "itions", "1757": "\u0120John", "1758": "ape", "1759": "play", "1760": "\u0120done", "1761": "\u0120lim", "1762": "\u0120working", "1763": "\u0120Pres", "1764": "orld", "1765": "eb", "1766": "\u0120Co", "1767": "\u0120body", "1768": "ails", "1769": "utes", "1770": "\u0120Mr", "1771": "\u0120whether", "1772": "\u0120author", "1773": "rop", "1774": "\u0120proper", "1775": "\u0120seen", "1776": ");", "1777": "\u0120fac", "1778": "\u0120Su", "1779": "\u0120cond", "1780": "iting", "1781": "\u0120course", "1782": "\u0120}", "1783": "----------------", "1784": "aign", "1785": "\u0120event", "1786": "\u0120eng", "1787": "\u0120pot", "1788": "\u0120intern", "1789": "iam", "1790": "\u0120short", "1791": "empt", "1792": "\u00e3\u0124", "1793": "\u0120God", "1794": "ilar", "1795": "80", "1796": "\u0120orig", "1797": "IS", "1798": "ourn", "1799": "ability", "1800": "itive", "1801": "\u0120dam", "1802": "\u0120100", "1803": "\u0120press", "1804": "\u0120doing", "1805": "\u0120protect", "1806": "ring", "1807": "\u0120thought", "1808": "\u0120question", "1809": "rew", "1810": "\u0120War", "1811": "\u0120several", "1812": "\u0120State", "1813": "\u0120given", "1814": "\u0120fund", "1815": "\u0120Tw", "1816": "\u0120went", "1817": "ances", "1818": "work", "1819": "por", "1820": "my", "1821": "40", "1822": "\u0120arg", "1823": "artment", "1824": "ustom", "1825": "\u0120polic", "1826": "\u0120meet", "1827": "\u0120creat", "1828": "22", "1829": "\u0120States", "1830": "\u0120games", "1831": "raw", "1832": "uture", "1833": "\u0120understand", "1834": "urs", "1835": "\u0120Ob", "1836": "lish", "1837": "sy", "1838": "\u0120makes", "1839": "\u0120won", "1840": "agon", "1841": "\u0120htt", "1842": "\u0120love", "1843": "ential", "1844": "\u0120complete", "1845": "par", "1846": "\u0120Im", "1847": "AL", "1848": "\u0120account", "1849": "\u00c2\u0142", "1850": "ored", "1851": "vert", "1852": "\u0120ident", "1853": "\u01202015", "1854": "\u0120others", "1855": "\u0120Min", "1856": "iber", "1857": "verage", "1858": "There", "1859": "itional", "1860": "dd", "1861": "\u0120prob", "1862": "\u0120young", "1863": "\u0120along", "1864": "\u0120according", "1865": "\u0120yet", "1866": "\u0120members", "1867": "\u0120What", "1868": "oid", "1869": "\u0120Man", "1870": "And", "1871": "\u0120among", "1872": "ai", "1873": "\u0120employ", "1874": "\u0120Res", "1875": "\u0120>", "1876": "\u0120invol", "1877": "\u0120low", "1878": "af", "1879": "\u0120Car", "1880": "\u0120hig", "1881": "\u0120One", "1882": "\u0120Sec", "1883": "ination", "1884": "\u0120likely", "1885": "\u0120ant", "1886": "aged", "1887": "\u0120Russ", "1888": "\u0120ben", "1889": "\u0120rele", "1890": "For", "1891": "back", "1892": "\u0120Not", "1893": "\u0120president", "1894": "ball", "1895": "\u0120access", "1896": "ividual", "1897": "\u0120Dem", "1898": "\u0120Euro", "1899": "60", "1900": "\u0120known", "1901": "irl", "1902": "\u0120Gr", "1903": "\u0120early", "1904": "use", "1905": "iety", "1906": "\u00e2\u0122\u0135", "1907": "\u0120fight", "1908": "\u0120sent", "1909": "\u0120today", "1910": "\u0120market", "1911": "\".", "1912": "\u0120based", "1913": "\u0120strong", "1914": "urther", "1915": "\u0120deb", "1916": "mber", "1917": "\u0120problem", "1918": "\u0120death", "1919": "\u0120social", "1920": "imate", "1921": "AS", "1922": "ortun", "1923": "\u0120campaign", "1924": "ery", "1925": "Ch", "1926": "\u0120ey", "1927": "ially", "1928": "\u0120mus", "1929": "wh", "1930": "pos", "1931": "\u0120er", "1932": "\u0120saf", "1933": "\u0120months", "1934": "iron", "1935": "\u0120viol", "1936": "\u0120five", "1937": "\u0120stre", "1938": "\u0120players", "1939": "inc", "1940": "ald", "1941": "year", "1942": "aun", "1943": "\u0120success", "1944": "\u0120present", "1945": "erence", "1946": "\u01202014", "1947": "\u0120sugg", "1948": "\u0120particular", "1949": "\u0120try", "1950": "\u0120suggest", "1951": "\u0120Christ", "1952": "ones", "1953": "\u0120priv", "1954": "23", "1955": "\u0120crit", "1956": "\u0120land", "1957": "\u0120local", "1958": "ify", "1959": "29", "1960": "\u0120aut", "1961": "ED", "1962": "\u0120Gu", "1963": "\u0120mult", "1964": "\u0120political", "1965": "\u0120asked", "1966": "\u0120former", "1967": "itter", "1968": "ript", "1969": "\u0120close", "1970": "\u0120pract", "1971": "\u0120York", "1972": "\u0120getting", "1973": "\u0120across", "1974": "\u0120comb", "1975": "\u0120believe", "1976": "\u0120z", "1977": "\u0120toget", "1978": "\u0120together", "1979": "\u0120Cent", "1980": "irc", "1981": "\u0120individual", "1982": "\u0120Mc", "1983": "27", "1984": "isk", "1985": "\u0120Eng", "1986": "\u0120face", "1987": "\u012024", "1988": "\u0120value", "1989": "\u0120area", "1990": "ev", "1991": "\u0120writ", "1992": "\u0120President", "1993": "\u0120vot", "1994": "\u0120key", "1995": "\u0120mom", "1996": "put", "1997": "\u0120anything", "1998": "\u0120experience", "1999": "attle", "2000": "\u0120mind", "2001": "aff", "2002": "omm", "2003": "\u0120future", "2004": "ged", "2005": "\u0120cut", "2006": "\u0120tot", "2007": "itch", "2008": "\u0120video", "2009": "\u0120investig", "2010": "\u0120net", "2011": "\u0120My", "2012": "rict", "2013": "ien", "2014": ".)", "2015": "\u0120impro", "2016": "though", "2017": "wards", "2018": "\u0120connect", "2019": "\u0120Med", "2020": "selves", "2021": "ensive", "2022": "mb", "2023": "ober", "2024": "ators", "2025": "An", "2026": "\u012050", "2027": "\u0120redu", "2028": "resent", "2029": "\u0120above", "2030": "\u0120fre", "2031": "\u0120Europe", "2032": "sw", "2033": "\u0120amount", "2034": "\u0120App", "2035": "\u0120either", "2036": "\u0120milit", "2037": "\u0120anal", "2038": "\u0120fail", "2039": "\u0120En", "2040": "ales", "2041": "\u0120special", "2042": "\u0120black", "2043": "IT", "2044": "cher", "2045": "\u0120looking", "2046": "\u0120fire", "2047": "yn", "2048": "\u0120almost", "2049": "oon", "2050": "\u0120study", "2051": "\u0120miss", "2052": "ches", "2053": "rown", "2054": "\u0120tre", "2055": "\u0120community", "2056": "\u0120media", "2057": "\u0120food", "2058": "\u0120comes", "2059": "\u0120University", "2060": "\u0120single", "2061": "What", "2062": "uly", "2063": "\u0120half", "2064": "ague", "2065": "hod", "2066": "\u0120Republic", "2067": "\u0120started", "2068": "\u0120quick", "2069": "oto", "2070": "book", "2071": "\u0120issue", "2072": "itor", "2073": "\u0120else", "2074": "\u0120consider", "2075": "26", "2076": "rodu", "2077": "\u0120taken", "2078": "28", "2079": "99", "2080": "\u0120With", "2081": "\u0120true", "2082": "\u0120wa", "2083": "\u0120trad", "2084": "\u0120ago", "2085": "\u0120mess", "2086": "ief", "2087": "\u0120added", "2088": "oke", "2089": "\u0120bad", "2090": "\u0120fav", "2091": "33", "2092": "\u0120similar", "2093": "ask", "2094": "\u0120Don", "2095": "\u0120character", "2096": "orts", "2097": "\u0120House", "2098": "\u0120reported", "2099": "\u0120type", "2100": "val", "2101": "iod", "2102": "\u0120However", "2103": "\u0120targ", "2104": "\u0120entire", "2105": "pping", "2106": "\u0120history", "2107": "\u0120live", "2108": "ffic", "2109": "........", "2110": "ederal", "2111": "\u0120trying", "2112": "\u0120discuss", "2113": "\u0120Har", "2114": "aces", "2115": "lished", "2116": "\u0120self", "2117": "osp", "2118": "rest", "2119": "\u0120room", "2120": "elt", "2121": "\u0120fall", "2122": "olution", "2123": "\u0120et", "2124": "\u0120x", "2125": "\u0120isn", "2126": "\u0120idea", "2127": "bo", "2128": "\u0120sound", "2129": "\u0120Dep", "2130": "\u0120someone", "2131": "cially", "2132": "ully", "2133": "\u0120foc", "2134": "\u0120object", "2135": "ift", "2136": "aper", "2137": "\u0120player", "2138": "\u0120rather", "2139": "\u0120service", "2140": "ashing", "2141": "\u0120Do", "2142": "\u0120Part", "2143": "rug", "2144": "mon", "2145": "ply", "2146": "\u0120mor", "2147": "\u0120nothing", "2148": "\u0120provide", "2149": "IC", "2150": "ung", "2151": "\u0120party", "2152": "\u0120exist", "2153": "\u0120mag", "2154": "70", "2155": "\u0120rul", "2156": "\u0120house", "2157": "\u0120behind", "2158": "\u0120however", "2159": "\u0120World", "2160": "\u0120sum", "2161": "\u0120applic", "2162": "\u0120;", "2163": "\u0120function", "2164": "gr", "2165": "\u0120Pol", "2166": "\u0120front", "2167": "200", "2168": "\u0120series", "2169": "\u0120tem", "2170": "\u0120typ", "2171": "ills", "2172": "\u0120opt", "2173": "\u0120points", "2174": "\u0120below", "2175": "itted", "2176": "\u0120specific", "2177": "\u01202017", "2178": "umb", "2179": "\u0120ra", "2180": "\u0120previous", "2181": "\u0120pret", "2182": "reme", "2183": "\u0120custom", "2184": "\u0120court", "2185": "\u0120Me", "2186": "\u0120repl", "2187": "\u0120whole", "2188": "go", "2189": "cer", "2190": "\u0120treat", "2191": "\u0120Act", "2192": "\u0120probably", "2193": "\u0120learn", "2194": "ender", "2195": "\u0120Ass", "2196": "\u0120version", "2197": "now", "2198": "\u0120check", "2199": "\u0120Cal", "2200": "RE", "2201": "minist", "2202": "On", "2203": "ources", "2204": "\u0120benef", "2205": "\u0120doc", "2206": "\u0120deter", "2207": "\u0120enc", "2208": "\u0120super", "2209": "\u0120address", "2210": "\u0120vict", "2211": "\u01202013", "2212": "\u0120meas", "2213": "tr", "2214": "\u0120field", "2215": "When", "2216": "\u0120signific", "2217": "uge", "2218": "\u0120feat", "2219": "\u0120common", "2220": "load", "2221": "\u0120begin", "2222": "\u0120bring", "2223": "\u0120action", "2224": "erman", "2225": "\u0120describ", "2226": "\u0120indust", "2227": "\u0120wanted", "2228": "ried", "2229": "ming", "2230": "\u0120attempt", "2231": "45", "2232": "fer", "2233": "\u0120due", "2234": "ression", "2235": "##", "2236": "\u0120shall", "2237": "\u0120six", "2238": "oo", "2239": "\u0120step", "2240": "\u0120pub", "2241": "\u0120himself", "2242": "\u012023", "2243": "\u0120cop", "2244": "\u0120dest", "2245": "\u0120stop", "2246": "AC", "2247": "ibility", "2248": "\u0120lab", "2249": "icult", "2250": "\u0120hours", "2251": "\u0120create", "2252": "\u0120further", "2253": "\u0120America", "2254": "\u0120City", "2255": "\u0120dou", "2256": "head", "2257": "ST", "2258": "\u0120North", "2259": "cing", "2260": "\u0120national", "2261": "ule", "2262": "\u0120Inst", "2263": "\u0120taking", "2264": "\u0120Qu", "2265": "irt", "2266": "\u0120red", "2267": "\u0120research", "2268": "viron", "2269": "\u0120Ge", "2270": "\u0120break", "2271": "ana", "2272": "\u0120space", "2273": "aterial", "2274": "\u0120recent", "2275": "\u0120Ab", "2276": "\u0120general", "2277": "\u0120hit", "2278": "\u0120period", "2279": "\u0120everything", "2280": "ively", "2281": "\u0120phys", "2282": "\u0120saying", "2283": "anks", "2284": "\u0120cou", "2285": "\u0120cult", "2286": "aced", "2287": "eal", "2288": "uation", "2289": "\u0120coun", "2290": "lu", "2291": "\u0120include", "2292": "\u0120position", "2293": "\u0120After", "2294": "\u0120Canad", "2295": "\u0120Em", "2296": "\u0120imm", "2297": "\u0120Red", "2298": "\u0120pick", "2299": "\u0120compl", "2300": "\u0120matter", "2301": "reg", "2302": "ext", "2303": "angu", "2304": "isc", "2305": "ole", "2306": "aut", "2307": "\u0120compet", "2308": "eed", "2309": "fect", "2310": "\u012021", "2311": "\u0120Sen", "2312": "\u0120These", "2313": "asing", "2314": "\u0120cannot", "2315": "\u0120init", "2316": "\u0120relations", "2317": "ached", "2318": "\u0120bar", "2319": "\u012040", "2320": "\u0120TH", "2321": "\u01202012", "2322": "\u0120vol", "2323": "\u0120ground", "2324": "\u0120security", "2325": "\u0120upd", "2326": "ilt", "2327": "35", "2328": "\u0120concern", "2329": "\u0120Just", "2330": "\u0120white", "2331": "\u0120seems", "2332": "\u0120Her", "2333": "pecially", "2334": "ients", "2335": "\u0120announ", "2336": "\u0120fig", "2337": "ights", "2338": "\u0120stri", "2339": "like", "2340": "ids", "2341": "\u0120sus", "2342": "\u0120watch", "2343": "\u0120\u00e2", "2344": "\u0120wind", "2345": "\u0120Cont", "2346": "\u0120itself", "2347": "\u0120mass", "2348": "Al", "2349": "yle", "2350": "ique", "2351": "\u0120National", "2352": "\u0120abs", "2353": "\u0120pack", "2354": "\u0120outside", "2355": "\u0120anim", "2356": "\u0120pain", "2357": "eter", "2358": "\u0120manag", "2359": "duct", "2360": "ogn", "2361": "\u0120]", "2362": "\u0120Sept", "2363": "sec", "2364": "off", "2365": "\u0120Jan", "2366": "\u0120foot", "2367": "ades", "2368": "\u0120third", "2369": "\u0120mot", "2370": "\u0120evidence", "2371": "inton", "2372": "\u0120threat", "2373": "apt", "2374": "ples", "2375": "cle", "2376": "\u0120lo", "2377": "\u0120decl", "2378": "\u0120item", "2379": "medi", "2380": "\u0120represent", "2381": "omb", "2382": "amer", "2383": "\u0120significant", "2384": "ograph", "2385": "su", "2386": "\u0120cal", "2387": "ires", "2388": "0000", "2389": "ID", "2390": "AM", "2391": "\u0120simply", "2392": "\u0120longer", "2393": "\u0120file", "2394": "OT", "2395": "che", "2396": "So", "2397": "ateg", "2398": "org", "2399": "\u0120His", "2400": "\u0120ener", "2401": "\u0120dom", "2402": "\u0120upon", "2403": "ili", "2404": "\":\"", "2405": "\u0120themselves", "2406": "\u0120coming", "2407": "\u0120quite", "2408": "\u0120difficult", "2409": "\u0120Bar", "2410": "ilities", "2411": "rel", "2412": "ends", "2413": "cial", "2414": "64", "2415": "\u0120woman", "2416": "rap", "2417": "yr", "2418": "\u0120necess", "2419": "ips", "2420": "\u0120text", "2421": "\u0120require", "2422": "\u0120military", "2423": "\u0120review", "2424": "\u0120respons", "2425": "75", "2426": "\u0120subject", "2427": "\u0120instead", "2428": "\u0120issues", "2429": "\u0120gen", "2430": "\",\"", "2431": "\u0120minutes", "2432": "\u0120weap", "2433": "ray", "2434": "amed", "2435": "time", "2436": "bl", "2437": "How", "2438": "\u0120code", "2439": "\u0120Sm", "2440": "\u0120higher", "2441": "\u0120Ste", "2442": "ris", "2443": "\u0120page", "2444": "\u0120students", "2445": "\u0120Intern", "2446": "\u0120method", "2447": "\u0120Aug", "2448": "\u0120Per", "2449": "\u0120Ag", "2450": "\u0120policy", "2451": "\u0120Sw", "2452": "\u0120exec", "2453": "\u0120accept", "2454": "ume", "2455": "ribut", "2456": "\u0120words", "2457": "\u0120final", "2458": "\u0120changes", "2459": "\u0120Democr", "2460": "\u0120friends", "2461": "\u0120respect", "2462": "\u0120ep", "2463": "\u0120compan", "2464": "ivil", "2465": "\u0120damage", "2466": "****", "2467": "ogle", "2468": "vironment", "2469": "\u0120neg", "2470": "ental", "2471": "\u0120ap", "2472": "\u0120total", "2473": "ival", "2474": "!\"", "2475": "lim", "2476": "\u0120needs", "2477": "\u0120agre", "2478": "\u0120development", "2479": "\u0120age", "2480": "iple", "2481": "21", "2482": "\u0120results", "2483": "\u0120Af", "2484": "Sh", "2485": "\u0120gun", "2486": "\u0120Obama", "2487": "roll", "2488": "\u0120@", "2489": "\u0120rights", "2490": "\u0120Brit", "2491": "\u0120running", "2492": "\u0120wasn", "2493": "\u0120port", "2494": "\u0120rate", "2495": "\u0120pretty", "2496": "\u0120target", "2497": "\u0120saw", "2498": "\u0120circ", "2499": "\u0120works", "2500": "icro", "2501": "alt", "2502": "over", "2503": "www", "2504": "That", "2505": "lier", "2506": "\u0120everyone", "2507": "ude", "2508": "\u0120pie", "2509": "iddle", "2510": "rael", "2511": "\u0120rad", "2512": "\u0120block", "2513": "\u0120walk", "2514": "To", "2515": "\u00e3\u0123", "2516": "nes", "2517": "\u0120Aust", "2518": "aul", "2519": "rote", "2520": "\u0120South", "2521": "ession", "2522": "oph", "2523": "\u0120shows", "2524": "\u0120site", "2525": "\u0120jo", "2526": "\u0120risk", "2527": "clus", "2528": "lt", "2529": "\u0120inj", "2530": "iding", "2531": "\u0120Spe", "2532": "\u0120chall", "2533": "irm", "2534": "\u012022", "2535": "itting", "2536": "str", "2537": "\u0120hy", "2538": "LE", "2539": "key", "2540": "\u0120began", "2541": "atur", "2542": "ashington", "2543": "lam", "2544": "\u0120Dav", "2545": "bit", "2546": "\u0120size", "2547": "\u0120Par", "2548": "38", "2549": "ournal", "2550": "face", "2551": "\u0120decision", "2552": "\u0120larg", "2553": "\u0120jud", "2554": "rect", "2555": "\u0120continue", "2556": "\u0120Oct", "2557": "overed", "2558": "\u0120Int", "2559": "========", "2560": "\u0120parent", "2561": "\u0120Will", "2562": "\u0120easy", "2563": "\u0120drug", "2564": "anger", "2565": "\u0120sense", "2566": "\u0120di", "2567": "iday", "2568": "\u0120energy", "2569": "istic", "2570": "\u0120associ", "2571": "arter", "2572": "obal", "2573": "eks", "2574": "\u0120El", "2575": "urch", "2576": "\u0120girl", "2577": "oe", "2578": "itle", "2579": "\u012028", "2580": "\u0120Che", "2581": "\u0120request", "2582": "\u0120soon", "2583": "\u0120host", "2584": "ky", "2585": "\u0120states", "2586": "omes", "2587": "\u0120material", "2588": "lex", "2589": "\u0120moment", "2590": "\u0120answ", "2591": "onse", "2592": "\u0120especially", "2593": "\u0120norm", "2594": "\u0120services", "2595": "pite", "2596": "ran", "2597": "\u0120role", "2598": "44", "2599": "):", "2600": "\u0120cred", "2601": "Cl", "2602": "________", "2603": "\u0120mat", "2604": "\u0120log", "2605": "\u0120Clinton", "2606": "OU", "2607": "\u0120office", "2608": "\u012026", "2609": "\u0120charg", "2610": "\u0120track", "2611": "ma", "2612": "\u0120heart", "2613": "\u0120ball", "2614": "\u0120personal", "2615": "\u0120building", "2616": "na", "2617": "set", "2618": "body", "2619": "\u0120Black", "2620": "\u0120increase", "2621": "itten", "2622": "\u0120needed", "2623": "36", "2624": "32", "2625": "=\"", "2626": "\u0120lost", "2627": "\u0120became", "2628": "\u0120groups", "2629": "\u0120Mus", "2630": "\u0120wrote", "2631": "\u0120Pe", "2632": "\u0120prop", "2633": "joy", "2634": "\u00c3\u00a9", "2635": "\u0120White", "2636": "\u0120dead", "2637": ".'", "2638": "\u0120http", "2639": "\u0120webs", "2640": "OS", "2641": "\u0120inside", "2642": "\u0120wrong", "2643": "\u0120statement", "2644": "\u0120...", "2645": "yl", "2646": "\u0120film", "2647": "\u0120music", "2648": "\u0120share", "2649": "ification", "2650": "\u0120release", "2651": "\u0120forward", "2652": "\u0120stay", "2653": "\u0120comput", "2654": "itte", "2655": "ser", "2656": "\u0120original", "2657": "\u0120card", "2658": "\u0120cand", "2659": "\u0120div", "2660": "atural", "2661": "\u0120favor", "2662": "OM", "2663": "\u0120cases", "2664": "uses", "2665": "\u0120section", "2666": "\u0120leave", "2667": "ging", "2668": "oved", "2669": "\u0120Washington", "2670": "39", "2671": "\u0120Gl", "2672": "\u0120required", "2673": "action", "2674": "apan", "2675": "oor", "2676": "iter", "2677": "\u0120King", "2678": "\u0120countries", "2679": "\u0120German", "2680": "lling", "2681": "\u012027", "2682": "34", "2683": "\u0120questions", "2684": "\u0120prim", "2685": "\u0120cell", "2686": "\u0120shoot", "2687": "\u0120anyone", "2688": "\u0120West", "2689": "\u0120affect", "2690": "epend", "2691": "\u0120online", "2692": "\u0120Israel", "2693": "\u0120September", "2694": "\u0120ability", "2695": "\u0120content", "2696": "ises", "2697": "\u0120reve", "2698": "\u0120laun", "2699": "\u0120indic", "2700": "\u0120force", "2701": "cast", "2702": "\u0120sold", "2703": "aving", "2704": "fl", "2705": "\u0120soft", "2706": "\u0120companies", "2707": "ceed", "2708": "\u0120article", "2709": "\u0120aud", "2710": "\u0120rev", "2711": "\u0120educ", "2712": "\u0120playing", "2713": "05", "2714": "\u0120held", "2715": "ctor", "2716": "\u0120released", "2717": "\u0120federal", "2718": "37", "2719": "\u0120administ", "2720": "\u0120interview", "2721": "\u0120install", "2722": "\u0120received", "2723": "\u0120source", "2724": "uk", "2725": "Ph", "2726": "\u0120serious", "2727": "\u0120created", "2728": "\u0120cause", "2729": "\u0120immedi", "2730": "\u0120defin", "2731": "uel", "2732": "\u0120Department", "2733": "ctions", "2734": "\u0120Cour", "2735": "\u0120Now", "2736": "ze", "2737": "ites", "2738": "itution", "2739": "\u0120late", "2740": "\u0120speak", "2741": "ners", "2742": "\u0120legal", "2743": "ari", "2744": "\u0120Cor", "2745": "\u0120weeks", "2746": "\u0120model", "2747": "\u0120pred", "2748": "\u0120exact", "2749": "BC", "2750": "\u0120By", "2751": "ING", "2752": "osing", "2753": "\u0120takes", "2754": "\u0120regard", "2755": "\u0120opportun", "2756": "\u0120price", "2757": "\u0120198", "2758": "\u0120Apr", "2759": "fully", "2760": "\u0120ord", "2761": "\u0120problems", "2762": "ruction", "2763": "ham", "2764": "\u0120Count", "2765": "lege", "2766": "\u0120leaders", "2767": "ET", "2768": "lev", "2769": "\u0120deep", "2770": "ological", "2771": "ese", "2772": "haps", "2773": "\u0120Some", "2774": "\u0120pers", "2775": "\u0120contract", "2776": "\u0120relationship", "2777": "sp", "2778": "oud", "2779": "\u0120base", "2780": "48", "2781": "mit", "2782": "Ad", "2783": "ancial", "2784": "\u0120consum", "2785": "\u0120potential", "2786": "\u0120langu", "2787": "rem", "2788": "eth", "2789": "\u0120relig", "2790": "ressed", "2791": "66", "2792": "\u0120link", "2793": "\u0120lower", "2794": "ayer", "2795": "\u0120June", "2796": "\u0120fem", "2797": "unt", "2798": "erc", "2799": "urd", "2800": "\u0120contact", "2801": "\u0120ill", "2802": "\u0120mother", "2803": "\u0120estab", "2804": "htt", "2805": "\u0120March", "2806": "\u0120Bro", "2807": "\u0120China", "2808": "\u012029", "2809": "\u0120squ", "2810": "\u0120provided", "2811": "\u0120average", "2812": "asons", "2813": "\u01202011", "2814": "\u0120exam", "2815": "lin", "2816": "55", "2817": "ned", "2818": "\u0120perfect", "2819": "\u0120tou", "2820": "alse", "2821": "ux", "2822": "\u0120buy", "2823": "\u0120shot", "2824": "\u0120collect", "2825": "\u0120phot", "2826": "\u0120played", "2827": "\u0120surpr", "2828": "\u0120officials", "2829": "\u0120simple", "2830": "avy", "2831": "\u0120industry", "2832": "\u0120hands", "2833": "ground", "2834": "\u0120pull", "2835": "\u0120round", "2836": "\u0120user", "2837": "\u0120range", "2838": "uary", "2839": "\u0120private", "2840": "ops", "2841": "ees", "2842": "\u0120ways", "2843": "\u0120Mich", "2844": "\u0120veh", "2845": "\u0120except", "2846": "\u0120terms", "2847": "imum", "2848": "pper", "2849": "ION", "2850": "ores", "2851": "\u0120Dragon", "2852": "oul", "2853": "\u0120den", "2854": "\u0120performance", "2855": "\u0120bill", "2856": "cil", "2857": "47", "2858": "\u0120environment", "2859": "\u0120exc", "2860": "add", "2861": "\u0120worth", "2862": "\u0120pict", "2863": "\u0120chance", "2864": "\u01202018", "2865": "bor", "2866": "\u0120speed", "2867": "iction", "2868": "\u0120alleg", "2869": "\u0120Japan", "2870": "atory", "2871": "reet", "2872": "\u0120match", "2873": "\u0120II", "2874": "\u0120stru", "2875": "order", "2876": "\u0120ste", "2877": "\u0120living", "2878": "\u0120struct", "2879": "ino", "2880": "\u0120separ", "2881": "hern", "2882": "\u0120response", "2883": "\u0120enjoy", "2884": "\u0120via", "2885": "AD", "2886": "uments", "2887": "acebook", "2888": "\u0120member", "2889": "ibr", "2890": "izing", "2891": "\u0120tool", "2892": "\u0120Mon", "2893": "\u0120While", "2894": "hood", "2895": "\u0120Ang", "2896": "\u0120Def", "2897": "\u0120offer", "2898": "Tr", "2899": "aur", "2900": "\u0120turned", "2901": "\u0120July", "2902": "down", "2903": "anced", "2904": "\u0120recently", "2905": "\u0120Ear", "2906": "\u0120ce", "2907": "\u0120Star", "2908": "\u0120Cong", "2909": "rought", "2910": "\u0120blood", "2911": "\u0120hope", "2912": "\u0120comment", "2913": "aint", "2914": "\u0120arri", "2915": "iles", "2916": "\u0120particip", "2917": "ought", "2918": "ription", "2919": "08", "2920": "49", "2921": "\u0120gave", "2922": "\u0120select", "2923": "\u0120killed", "2924": "sych", "2925": "\u0120goes", "2926": "ij", "2927": "\u0120coll", "2928": "\u0120impact", "2929": "atives", "2930": "\u0120Ser", "2931": "09", "2932": "\u0120August", "2933": "\u0120boy", "2934": "de", "2935": "\u0120Des", "2936": "\u0120felt", "2937": "US", "2938": "\u0120expected", "2939": "\u0120image", "2940": "\u0120Mark", "2941": "ccording", "2942": "oice", "2943": "EC", "2944": "\u0120Mag", "2945": "ened", "2946": "hold", "2947": "\u0120Post", "2948": "\u0120prevent", "2949": "No", "2950": "\u0120involved", "2951": "\u0120eyes", "2952": "\u0120quickly", "2953": "At", "2954": "unk", "2955": "\u0120behav", "2956": "\u0120ur", "2957": "\u0120led", "2958": "come", "2959": "ey", "2960": "\u0120candid", "2961": "\u0120earlier", "2962": "\u0120focus", "2963": "ety", "2964": "Pro", "2965": "ledge", "2966": "ixed", "2967": "illed", "2968": "\u0120popular", "2969": "AP", "2970": "\u0120sett", "2971": "light", "2972": "\u0120various", "2973": "inks", "2974": "\u0120levels", "2975": "\u0120road", "2976": "ellig", "2977": "ables", "2978": "hel", "2979": "ittee", "2980": "\u0120Gener", "2981": "ype", "2982": "\u0120heard", "2983": "icles", "2984": "\u0120mis", "2985": "\u0120users", "2986": "\u0120San", "2987": "\u0120improve", "2988": "\u0120father", "2989": "\u0120search", "2990": "They", "2991": "vil", "2992": "\u0120profess", "2993": "\u0120knew", "2994": "\u0120loss", "2995": "\u0120events", "2996": "65", "2997": "\u0120billion", "2998": "07", "2999": "02", "3000": "\u0120News", "3001": "\u0120AM", "3002": "\u0120cover", "3003": "where", "3004": "ension", "3005": "\u0120bott", "3006": "\u0120areas", "3007": "ences", "3008": "ope", "3009": "\u0120Twitter", "3010": "ael", "3011": "\u0120gets", "3012": "\u0120Google", "3013": "\u0120sn", "3014": "iant", "3015": "\u0120vote", "3016": "\u0120nearly", "3017": "\u0120included", "3018": "\u0120recogn", "3019": "zz", "3020": "mm", "3021": "aled", "3022": "\u0120happened", "3023": "04", "3024": "\u0120hot", "3025": "\u0120whose", "3026": "\u0120civil", "3027": "\u0120suff", "3028": "oes", "3029": "itiz", "3030": "\u0120Syri", "3031": "\u0120respond", "3032": "\u0120hon", "3033": "\u0120features", "3034": "\u0120economic", "3035": "\u0120April", "3036": "rim", "3037": "\u0120technology", "3038": "\u0120option", "3039": "aging", "3040": "\u0120purch", "3041": "Re", "3042": "\u0120lat", "3043": "chie", "3044": "isl", "3045": "\u0120recomm", "3046": "uf", "3047": "\u0120training", "3048": "\u0120effects", "3049": "\u0120fast", "3050": "\u01202010", "3051": "\u0120occur", "3052": "\u0120website", "3053": "\u0120email", "3054": "\u0120sens", "3055": "ech", "3056": "\u0120oil", "3057": "\u0120influ", "3058": "\u0120currently", "3059": "\u0120Sch", "3060": "\u0120Add", "3061": "\u0120goal", "3062": "\u0120scient", "3063": "\u0120conv", "3064": "100", "3065": "emy", "3066": "\u0120decided", "3067": "\u0120travel", "3068": "\u0120mention", "3069": "LL", "3070": "03", "3071": "\u0120election", "3072": "\u0120phone", "3073": "\u0120looks", "3074": "\u0120situation", "3075": "\u0120cy", "3076": "\u0120hor", "3077": "bed", "3078": "\u0120Court", "3079": "aily", "3080": "aves", "3081": "\u0120quality", "3082": "\u0120Comp", "3083": "wise", "3084": "\u0120table", "3085": "\u0120staff", "3086": "\u0120Wind", "3087": "ett", "3088": "\u0120tried", "3089": "idered", "3090": "\u0120addition", "3091": "\u0120box", "3092": "\u0120lack", "3093": "arily", "3094": "\u0120wide", "3095": "\u0120mid", "3096": "\u0120board", "3097": "ysis", "3098": "\u0120anti", "3099": "ha", "3100": "\u0120dig", "3101": "ening", "3102": "\u0120dro", "3103": "Con", "3104": "68", "3105": "\u0120slow", "3106": "based", "3107": "sequ", "3108": "\u0120path", "3109": "Ex", "3110": "aker", "3111": "\u0120worked", "3112": "\u0120pen", "3113": "\u0120engine", "3114": "\u0120looked", "3115": "\u0120Super", "3116": "\u0120Serv", "3117": "\u0120victim", "3118": "Un", "3119": "\u0120property", "3120": "\u0120introdu", "3121": "\u0120execut", "3122": "\u0120PM", "3123": "Le", "3124": "\u0120color", "3125": "\u0120More", "3126": "\u012060", "3127": "\u0120network", "3128": "\u0120date", "3129": "cul", "3130": "idge", "3131": "\u0120extra", "3132": "31", "3133": "\u0120sle", "3134": "67", "3135": "\u0120wond", "3136": "\u0120reports", "3137": "just", "3138": "\u0120Austral", "3139": "\u0120capital", "3140": "\u0120ens", "3141": "\u0120command", "3142": "\u0120allowed", "3143": "\u0120prep", "3144": "\u0120capt", "3145": "hib", "3146": "\u0120numbers", "3147": "chan", "3148": "\u0120fair", "3149": "mp", "3150": "oms", "3151": "\u0120reach", "3152": "With", "3153": "tain", "3154": "\u0120broad", "3155": "\u0120couple", "3156": "ecause", "3157": "lying", "3158": "\u0120Feb", "3159": "\u0120screen", "3160": "\u0120lives", "3161": "\u0120prior", "3162": "\u0120Congress", "3163": "Ar", "3164": "\u0120approach", "3165": "\u0120emer", "3166": "aries", "3167": "\u0120Dis", "3168": "serv", "3169": "\u0120Ne", "3170": "\u0120built", "3171": "cies", "3172": "\u0120repe", "3173": "\u0120rules", "3174": "force", "3175": "\u0120Pal", "3176": "\u0120financial", "3177": "\u0120considered", "3178": "\u0120Char", "3179": "nces", "3180": "\u0120IS", "3181": "\u0120brought", "3182": "\u0120bi", "3183": "iers", "3184": "\u0120Sim", "3185": "OP", "3186": "\u0120products", "3187": "\u0120visit", "3188": "\u0120document", "3189": "\u0120conduct", "3190": "\u0120completely", "3191": "ining", "3192": "\u0120Calif", "3193": "ibly", "3194": "\u0120written", "3195": "\u0120TV", "3196": "ements", "3197": "\u0120draw", "3198": "One", "3199": "\u0120published", "3200": "\u0120secret", "3201": "rain", "3202": "het", "3203": "\u0120Facebook", "3204": "onday", "3205": "\u0120Up", "3206": "\u0120sexual", "3207": "\u0120thous", "3208": "\u0120Pat", "3209": "\u0120ess", "3210": "\u0120standard", "3211": "\u0120arm", "3212": "ges", "3213": "ection", "3214": "\u0120fell", "3215": "\u0120foreign", "3216": "ani", "3217": "\u0120Friday", "3218": "\u0120regular", "3219": "inary", "3220": "\u0120increased", "3221": "\u0120usually", "3222": "\u0120demon", "3223": "\u0120dark", "3224": "\u0120additional", "3225": "rol", "3226": "\u0120Of", "3227": "\u0120production", "3228": "!!", "3229": "undred", "3230": "\u0120international", "3231": "idents", "3232": "\u0120Free", "3233": "roup", "3234": "\u0120race", "3235": "\u0120mach", "3236": "\u0120huge", "3237": "All", "3238": "lear", "3239": "ovember", "3240": "\u0120town", "3241": "\u0120attention", "3242": "\u0120Off", "3243": "yond", "3244": "\u0120Then", "3245": "field", "3246": "\u0120terror", "3247": "raz", "3248": "\u0120Bo", "3249": "\u0120meeting", "3250": "\u0120Park", "3251": "\u0120arrest", "3252": "\u0120fear", "3253": "\u0120aw", "3254": "\u0120Val", "3255": "oring", "3256": "',", "3257": "\u0120extreme", "3258": "arr", "3259": "\u0120workers", "3260": "After", "3261": "\u012031", "3262": "net", "3263": "ament", "3264": "\u0120directly", "3265": "\u0120population", "3266": "ube", "3267": "\u0120October", "3268": "\u0120IN", "3269": "\u0120January", "3270": "59", "3271": "\u0120David", "3272": "\u0120cross", "3273": "cember", "3274": "\u0120First", "3275": "\u0120message", "3276": "irit", "3277": "\u0120nation", "3278": "\u0120poll", "3279": "isions", "3280": "\u0120answer", "3281": "ny", "3282": "isode", "3283": "\u0120carry", "3284": "\u0120Russia", "3285": "\u0120hear", "3286": "ength", "3287": "roy", "3288": "\u0120natural", "3289": "inally", "3290": "\u0120dog", "3291": "mitted", "3292": "\u0120trade", "3293": "\u0120subst", "3294": "\u0120multiple", "3295": "\u0120Afric", "3296": "\u0120fans", "3297": "\u0120sort", "3298": "\u0120global", "3299": "ication", "3300": "\u0120Wed", "3301": "ara", "3302": "\u0120achie", "3303": "\u0120language", "3304": "vey", "3305": "\u0120tal", "3306": "\u0120necessary", "3307": "\u0120details", "3308": "\u0120sen", "3309": "\u0120Sund", "3310": "\u0120Reg", "3311": "\u0120Rec", "3312": "06", "3313": "\u0120sil", "3314": "ressive", "3315": "\u0120medical", "3316": "unch", "3317": "ornia", "3318": "\u0120und", "3319": "fort", "3320": "ocks", "3321": "\u0120Monday", "3322": "uesday", "3323": "craft", "3324": "77", "3325": "urt", "3326": "\u0120ver", "3327": "\u0120Hill", "3328": "\u0120receive", "3329": "\u0120morning", "3330": "estern", "3331": "\u0120bank", "3332": "\u0120sat", "3333": "irth", "3334": "\u0120High", "3335": "\u0120device", "3336": "\u0120THE", "3337": "\u0120Center", "3338": "\u0120safe", "3339": "\u0120ple", "3340": "\u0120Canada", "3341": "\u0120systems", "3342": "\u0120assist", "3343": "\u0120surv", "3344": "\u0120battle", "3345": "\u0120Soc", "3346": "vertis", "3347": "She", "3348": "\u0120paper", "3349": "\u0120growth", "3350": "\u0120cast", "3351": "Sc", "3352": "\u0120plans", "3353": "lled", "3354": "\u0120parts", "3355": "\u0120wall", "3356": "\u0120movement", "3357": "\u0120practice", "3358": "imately", "3359": "\u0120display", "3360": "\u0120sometimes", "3361": "omp", "3362": "\u0120Paul", "3363": "\u0120Yes", "3364": "king", "3365": "58", "3366": "oly", "3367": "\u0120son", "3368": "\u0120avoid", "3369": "okes", "3370": "\u0120Jew", "3371": "\u0120towards", "3372": "asc", "3373": "\u0120//", "3374": "\u0120Kore", "3375": "\u0120talking", "3376": "\u0120correct", "3377": "\u0120spent", "3378": "icks", "3379": "iable", "3380": "eared", "3381": "\u0120term", "3382": "\u0120wants", "3383": "oming", "3384": "\u0120ut", "3385": "\u0120doub", "3386": "\u0120forces", "3387": "\u0120please", "3388": "69", "3389": "\u0120November", "3390": "atform", "3391": "ondon", "3392": "\u0120ones", "3393": "\u0120immediately", "3394": "\u0120Russian", "3395": "\u0120Met", "3396": "\u0120deg", "3397": "\u0120parents", "3398": "CH", "3399": "\u0120Americans", "3400": "aly", "3401": "\u0120Mod", "3402": "\u0120shown", "3403": "\u0120conditions", "3404": "\u0120stuff", "3405": "\u0120reb", "3406": "\u0120Your", "3407": "\u0120includes", "3408": "nown", "3409": "\u0120Sam", "3410": "\u0120experien", "3411": "mission", "3412": "\u0120Even", "3413": "aught", "3414": "\u0120announced", "3415": "\u0120Republican", "3416": "\u0120determin", "3417": "\u0120described", "3418": "\u0120County", "3419": "()", "3420": "\u0120door", "3421": "\u0120changed", "3422": "\u0120neigh", "3423": "\u0120Here", "3424": "\u0120clean", "3425": "\u0120pan", "3426": "\u0120December", "3427": "\u0120European", "3428": "iring", "3429": "apter", "3430": "\u0120club", "3431": "\u0120Tuesday", "3432": "\u0120paid", "3433": "\u0120Net", "3434": "\u0120attacks", "3435": "\u0120characters", "3436": "\u0120alone", "3437": "\u0120director", "3438": "dom", "3439": "\u012035", "3440": "\u0120load", "3441": "\u0120rout", "3442": "\u0120California", "3443": "\u0120finally", "3444": "\u0120rac", "3445": "\u0120contr", "3446": "\u0120exactly", "3447": "resh", "3448": "pri", "3449": "\u0120Islam", "3450": "\u0120nature", "3451": "\u0120career", "3452": "\u0120latest", "3453": "\u0120convers", "3454": "\u0120Sl", "3455": "pose", "3456": "cient", "3457": "\u0120Inc", "3458": "ivity", "3459": "88", "3460": "\u0120Att", "3461": "\u0120Mor", "3462": "nesday", "3463": "\u0120weight", "3464": "ken", "3465": "\u0120note", "3466": "\u0120teams", "3467": "\u0120\\", "3468": "airs", "3469": "\u0120Green", "3470": "\u0120hundred", "3471": "onent", "3472": "\u0120streng", "3473": "\u0120consist", "3474": "icated", "3475": "\u0120regul", "3476": "\u0120lic", "3477": "astic", "3478": "\u0120ten", "3479": "ursday", "3480": "elligence", "3481": "ously", "3482": "\u0120UK", "3483": "BI", "3484": "\u0120costs", "3485": "\u0120independ", "3486": "\u0120AP", "3487": "\u0120normal", "3488": "\u0120hom", "3489": "\u0120obvious", "3490": "\u0120swe", "3491": "\u0120star", "3492": "\u0120ready", "3493": "acher", "3494": "\u0120implement", "3495": "gest", "3496": "\u0120song", "3497": "\u0120Get", "3498": "\u0120Lab", "3499": "\u0120interesting", "3500": "using", "3501": "\u0120giving", "3502": "\u0120Sunday", "3503": "\u0120etc", "3504": "\u0120middle", "3505": "\u0120remember", "3506": "right", "3507": "osition", "3508": "utions", "3509": "\u0120max", "3510": "46", "3511": "\u0120yourself", "3512": "\u0120demand", "3513": "\u0120treatment", "3514": "\u0120danger", "3515": "\u0120Cons", "3516": "\u0120guy", "3517": "\u0120British", "3518": "\u0120physical", "3519": "\u0120related", "3520": "\u0120remain", "3521": "\u0120couldn", "3522": "\u0120refer", "3523": "\u0120citiz", "3524": "box", "3525": "ENT", "3526": "board", "3527": "\u0120inn", "3528": "IG", "3529": "ero", "3530": "\u0120Street", "3531": "ospital", "3532": "rench", "3533": "chers", "3534": "\u0120stra", "3535": "OL", "3536": "ager", "3537": "\u0120AN", "3538": "\u0120easily", "3539": "IA", "3540": "enge", "3541": "iny", "3542": "\u0120clos", "3543": "ocked", "3544": "\u0120uses", "3545": "\u0120Coun", "3546": "Im", "3547": "uild", "3548": "??", "3549": "more", "3550": "\u0120ang", "3551": "\u0120write", "3552": "olute", "3553": "57", "3554": "\u0120leader", "3555": "\u0120reading", "3556": "</", "3557": "\u0120autom", "3558": "ests", "3559": "43", "3560": "\u0120legisl", "3561": "\u0120Gold", "3562": "\u0120designed", "3563": "\u0120ST", "3564": "\u0120Leg", "3565": "ares", "3566": "\u0120beaut", "3567": "\u0120Tex", "3568": "\u0120appears", "3569": "\u0120strugg", "3570": "\u0120Rom", "3571": "\u012000", "3572": "\u0120choice", "3573": "\u0120particularly", "3574": "\u0120From", "3575": "oper", "3576": "\u0120London", "3577": "anned", "3578": "\u0120allows", "3579": "obile", "3580": "\u0120difference", "3581": "\u00e2\u0122\u00a2", "3582": "\u0120View", "3583": "\u0120Wednesday", "3584": "\u0120although", "3585": "\u0120relative", "3586": "\u0120application", "3587": "atever", "3588": "\u0120aren", "3589": "\u0120myself", "3590": "\u0120imag", "3591": "\u0120dise", "3592": "\u0120society", "3593": "\u0120frequ", "3594": "\u0120English", "3595": "\u0120poor", "3596": "\u0120Day", "3597": "\u0120writing", "3598": "\u0120seven", "3599": "\u0120starting", "3600": "\u0120bud", "3601": "\u0120print", "3602": "\u0120Trans", "3603": "ufact", "3604": "\u0120Stud", "3605": "new", "3606": "\u0120crim", "3607": "\u0120gives", "3608": "\u0120cool", "3609": "ae", "3610": "iance", "3611": "\u0120General", "3612": "\u0120thinking", "3613": "\u0120save", "3614": "\u0120limited", "3615": "\u0120Party", "3616": "\u0120meaning", "3617": "pen", "3618": "owers", "3619": "\u0120Jack", "3620": "EM", "3621": "\u0120nice", "3622": "rupt", "3623": "\u0120gas", "3624": "\u0120eight", "3625": "\u0120feet", "3626": "\u0120effort", "3627": "\u0120ign", "3628": "icit", "3629": "Bl", "3630": "coin", "3631": "\u0120opin", "3632": "\u0120brain", "3633": "While", "3634": "hest", "3635": "\u0120Thursday", "3636": "\u0120wouldn", "3637": "aughter", "3638": "\u0120touch", "3639": "lements", "3640": "\u0120studies", "3641": "\u0120center", "3642": "cont", "3643": "orge", "3644": "\u0120computer", "3645": "\u0120investigation", "3646": "Pl", "3647": "orks", "3648": "\u01202008", "3649": "\u0120increasing", "3650": "\u0120store", "3651": "\u0120comments", "3652": "\u0120bal", "3653": "men", "3654": "\u0120doll", "3655": "\u0120liber", "3656": "\u0120wife", "3657": "\u0120laws", "3658": "aturday", "3659": "itness", "3660": "\u0120modern", "3661": "\u0120Sk", "3662": "\u0120administration", "3663": "\u0120opportunity", "3664": "\u0120sal", "3665": "\u0120powerful", "3666": "My", "3667": "\u0120claims", "3668": "\u0120Earth", "3669": "ords", "3670": "\u0120title", "3671": "\u0120esc", "3672": "name", "3673": "Not", "3674": "omen", "3675": "\u0120beyond", "3676": "\u0120camer", "3677": "\u0120sell", "3678": "itute", "3679": "earch", "3680": "\u0120appl", "3681": "iment", "3682": "42", "3683": "\u0120Art", "3684": "\u0120unf", "3685": "\u0120violence", "3686": "urg", "3687": "\u0120East", "3688": "\u0120compared", "3689": "\u0120options", "3690": "\u0120throughout", "3691": "\u0120vs", "3692": "igr", "3693": ".[", "3694": "aches", "3695": "78", "3696": "\u0120files", "3697": "FL", "3698": "EL", "3699": "arian", "3700": "\u0120James", "3701": "\u0120Air", "3702": "anch", "3703": "\u0120detail", "3704": "\u0120piece", "3705": "PS", "3706": "\u0120named", "3707": "\u0120education", "3708": "\u0120drive", "3709": "\u0120items", "3710": "\u0120student", "3711": "iced", "3712": "::", "3713": "ico", "3714": "\u0120throw", "3715": "\u0120scene", "3716": "\u0120complex", "3717": "\u01202009", "3718": "\u0120prec", "3719": "\u0120Bre", "3720": "79", "3721": "\u0120concept", "3722": "\u0120status", "3723": "aming", "3724": "\u0120died", "3725": "\u0120knowledge", "3726": "\u0120beginning", "3727": "OD", "3728": "ruary", "3729": "\u0120certainly", "3730": "\u0120guys", "3731": "\u0120slight", "3732": "inn", "3733": "ounds", "3734": "\u0120fine", "3735": "\u0120fat", "3736": "ications", "3737": "\u0120perhaps", "3738": "\u0120Ant", "3739": "\u0120income", "3740": "\u0120https", "3741": "\u0120majority", "3742": "ports", "3743": "ston", "3744": "\u0120greater", "3745": "\u0120feed", "3746": "entially", "3747": "\u0120safety", "3748": "\u0120unique", "3749": "andom", "3750": "\u0120gone", "3751": "\u0120showed", "3752": "\u0120histor", "3753": "\u0120counter", "3754": "ius", "3755": "ida", "3756": "\u0120leading", "3757": "ipe", "3758": "\u0120send", "3759": "\u0120Donald", "3760": "erve", "3761": "\u0120defense", "3762": "inese", "3763": "\u0120yes", "3764": "\u0120Fire", "3765": "\u0120Muslim", "3766": "raq", "3767": "\u0120continued", "3768": "osh", "3769": "\u0120provides", "3770": "\u0120prison", "3771": "\u0120Pre", "3772": "\u0120happy", "3773": "\u0120economy", "3774": "\u0120trust", "3775": "ags", "3776": "\u0120Game", "3777": "\u0120weapons", "3778": "uman", "3779": "\u0120Cle", "3780": "itation", "3781": "\u0120analysis", "3782": "\u0120Times", "3783": "\u0120science", "3784": "->", "3785": "\u0120figure", "3786": "\u0120disapp", "3787": "enty", "3788": "\u0120software", "3789": "\u0120ult", "3790": "\u0120officers", "3791": "New", "3792": "Is", "3793": "\u0120remains", "3794": "\u0120India", "3795": "\u0120psych", "3796": "rief", "3797": "\u0120cat", "3798": "esc", "3799": "\u0120observ", "3800": "\u0120stage", "3801": "\u0120Dark", "3802": "\u0120enter", "3803": "change", "3804": "\u0120passed", "3805": "\u0120despite", "3806": "\u0120Out", "3807": "\u0120movie", "3808": "rs", "3809": "\u0120voice", "3810": "mine", "3811": "\u0120Play", "3812": "\u0120toward", "3813": "\u0120Ter", "3814": "\u0120region", "3815": "\u0120values", "3816": "orters", "3817": "\u0120mount", "3818": "\u0120officer", "3819": "\u0120Other", "3820": "ban", "3821": "\u0120hous", "3822": "wood", "3823": "room", "3824": "IV", "3825": "\u0120Sun", "3826": "see", "3827": "\u0120Over", "3828": "rog", "3829": "90", "3830": "\u0120lay", "3831": "\u0120Tur", "3832": "awn", "3833": "\u0120pressure", "3834": "\u0120Sub", "3835": "\u0120books", "3836": "edom", "3837": "\u0120Sand", "3838": "AA", "3839": "ago", "3840": "\u0120reasons", "3841": "ford", "3842": "\u0120activity", "3843": "UT", "3844": "Now", "3845": "\u0120Senate", "3846": "cell", "3847": "night", "3848": "\u0120calls", "3849": "inter", "3850": "\u0120letter", "3851": "\u0120Rob", "3852": "\u0120Je", "3853": "\u0120choose", "3854": "\u0120Law", "3855": "Get", "3856": "Be", "3857": "\u0120rob", "3858": "\u0120types", "3859": "\u0120platform", "3860": "\u0120quarter", "3861": "RA", "3862": "\u0120Time", "3863": "\u0120maybe", "3864": "\u0120Cr", "3865": "95", "3866": "pre", "3867": "\u0120moving", "3868": "\u0120lif", "3869": "\u0120gold", "3870": "\u0120som", "3871": "\u0120patients", "3872": "\u0120truth", "3873": "\u0120Ke", "3874": "urance", "3875": "antly", "3876": "mar", "3877": "\u0120charge", "3878": "\u0120Great", "3879": "\u0120cele", "3880": "--------------------------------", "3881": "\u0120rock", "3882": "roid", "3883": "ancy", "3884": "\u0120credit", "3885": "aud", "3886": "By", "3887": "\u0120Every", "3888": "\u0120moved", "3889": "inger", "3890": "ribution", "3891": "\u0120names", "3892": "\u0120straight", "3893": "\u0120Health", "3894": "\u0120Well", "3895": "\u0120feature", "3896": "\u0120rule", "3897": "\u0120sche", "3898": "inated", "3899": "\u0120Michael", "3900": "berg", "3901": "41", "3902": "iled", "3903": "band", "3904": "\u0120click", "3905": "\u0120Angel", "3906": "onents", "3907": "\u00c2\u0143", "3908": "\u0120Iraq", "3909": "\u0120Saturday", "3910": "\u0120aware", "3911": "part", "3912": "\u0120pattern", "3913": "OW", "3914": "\u0120Let", "3915": "\u0120grad", "3916": "igned", "3917": "\u0120associated", "3918": "\u0120style", "3919": "no", "3920": "iation", "3921": "aith", "3922": "ilies", "3923": "\u0120stories", "3924": "uration", "3925": "\u0120individuals", "3926": "\u0120\u00e2\u0122\u00a6", "3927": "miss", "3928": "\u0120Associ", "3929": "ishing", "3930": "aby", "3931": "\u0120summer", "3932": "\u0120Ben", "3933": "\u012032", "3934": "\u0120arch", "3935": "uty", "3936": "\u0120Texas", "3937": "hol", "3938": "\u0120fully", "3939": "\u0120mill", "3940": "\u0120followed", "3941": "\u0120Bill", "3942": "\u0120Indian", "3943": "\u0120Secret", "3944": "\u0120Bel", "3945": "\u0120February", "3946": "\u0120jobs", "3947": "\u0120seemed", "3948": "\u0120Govern", "3949": "ipped", "3950": "\u0120reality", "3951": "\u0120lines", "3952": "\u0120park", "3953": "\u0120measure", "3954": "\u0120Our", "3955": "IM", "3956": "\u0120brother", "3957": "\u0120growing", "3958": "\u0120ban", "3959": "\u0120estim", "3960": "\u0120cry", "3961": "\u0120School", "3962": "\u0120mechan", "3963": "\u0120OF", "3964": "\u0120Windows", "3965": "\u0120rates", "3966": "\u0120Oh", "3967": "\u0120positive", "3968": "\u0120culture", "3969": "istics", "3970": "ica", "3971": "\u0120har", "3972": "ya", "3973": "itely", "3974": "ipp", "3975": "\u0120map", "3976": "encies", "3977": "\u0120William", "3978": "II", "3979": "akers", "3980": "56", "3981": "\u0120Mart", "3982": "\u0120Rem", "3983": "\u0120altern", "3984": "itude", "3985": "\u0120coach", "3986": "rowd", "3987": "Don", "3988": "\u0120kids", "3989": "\u0120journal", "3990": "\u0120corpor", "3991": "\u0120false", "3992": "\u0120web", "3993": "\u0120sleep", "3994": "\u0120contain", "3995": "\u0120sto", "3996": "\u0120bed", "3997": "iverse", "3998": "\u0120Rich", "3999": "\u0120Chinese", "4000": "\u0120pun", "4001": "\u0120meant", "4002": "known", "4003": "\u0120notice", "4004": "\u0120favorite", "4005": "aven", "4006": "\u0120condition", "4007": "\u0120purpose", "4008": "))", "4009": "\u0120organization", "4010": "\u0120challeng", "4011": "\u0120manufact", "4012": "\u0120susp", "4013": "\u0120Ac", "4014": "\u0120critic", "4015": "unes", "4016": "uclear", "4017": "\u0120mer", "4018": "vention", "4019": "\u012080", "4020": "\u0120mist", "4021": "\u0120Us", "4022": "\u0120Tor", "4023": "http", "4024": "olf", "4025": "\u0120larger", "4026": "\u0120advant", "4027": "\u0120resear", "4028": "\u0120actions", "4029": "ml", "4030": "\u0120kept", "4031": "\u0120aim", "4032": ",'", "4033": "col", "4034": "\u0120benefits", "4035": "ifying", "4036": "\u0120actual", "4037": "\u0120International", "4038": "\u0120vehicle", "4039": "\u0120chief", "4040": "\u0120efforts", "4041": "\u0120League", "4042": "\u0120Most", "4043": "\u0120wait", "4044": "\u0120adult", "4045": "\u0120overall", "4046": "\u0120speech", "4047": "\u0120highly", "4048": "\u0120female", "4049": "\u0120error", "4050": "\u0120effective", "4051": "54", "4052": "\u0120encour", "4053": "well", "4054": "\u0120failed", "4055": "\u0120conserv", "4056": "\u0120programs", "4057": "\u0120trou", "4058": "\u0120ahead", "4059": "500", "4060": "vertisement", "4061": "IP", "4062": "\u0120Found", "4063": "pir", "4064": "\u0120%", "4065": "\u0120crime", "4066": "ander", "4067": "\u0120location", "4068": "\u0120Iran", "4069": "\u0120behavior", "4070": "azing", "4071": "\u0120rare", "4072": "\u0120emb", "4073": "\u0120caused", "4074": "\u0120ship", "4075": "\u0120active", "4076": "\u0120contribut", "4077": "\u0120green", "4078": "\u0120acqu", "4079": "\u0120reflect", "4080": "venue", "4081": "\u0120firm", "4082": "\u0120birth", "4083": "].", "4084": "\u0120clearly", "4085": "\u0120emot", "4086": "\u0120agency", "4087": "riage", "4088": "\u0120memory", "4089": "98", "4090": "SA", "4091": "\u0120See", "4092": "acing", "4093": "CC", "4094": "\u0120biggest", "4095": "\u0120rap", "4096": "\u0120basic", "4097": "\u0120band", "4098": "eat", "4099": "\u0120suspect", "4100": "\u0120Mac", "4101": "\u012090", "4102": "mark", "4103": "istan", "4104": "\u0120spread", "4105": "ams", "4106": "ki", "4107": "asy", "4108": "rav", "4109": "\u0120Rober", "4110": "\u0120demonstr", "4111": "rated", "4112": "\u0120absolute", "4113": "\u0120places", "4114": "\u0120impl", "4115": "ibrary", "4116": "\u0120cards", "4117": "\u0120destroy", "4118": "\u0120virt", "4119": "vere", "4120": "\u0120appeared", "4121": "yan", "4122": "point", "4123": "\u0120beg", "4124": "\u0120temper", "4125": "spe", "4126": "anted", "4127": "ears", "4128": "\u0120Direct", "4129": "\u0120length", "4130": "\u0120blog", "4131": "amb", "4132": "\u0120integ", "4133": "\u0120resources", "4134": "acc", "4135": "iful", "4136": "\u0120spot", "4137": "\u0120forced", "4138": "\u0120thousands", "4139": "\u0120Minister", "4140": "\u0120qual", "4141": "\u0120French", "4142": "atically", "4143": "\u0120generally", "4144": "\u0120drink", "4145": "\u0120thus", "4146": "IL", "4147": "odes", "4148": "\u0120appropri", "4149": "\u0120Read", "4150": "\u0120whom", "4151": "\u0120eye", "4152": "\u0120college", "4153": "\u012045", "4154": "irection", "4155": "\u0120ensure", "4156": "\u0120apparent", "4157": "iders", "4158": "\u0120religious", "4159": "\u0120minor", "4160": "olic", "4161": "\u0120tro", "4162": "\u0120Why", "4163": "ribute", "4164": "met", "4165": "\u0120primary", "4166": "\u0120developed", "4167": "\u0120peace", "4168": "\u0120skin", "4169": "ste", "4170": "ava", "4171": "\u0120blue", "4172": "\u0120families", "4173": "\u0120ir", "4174": "\u0120apply", "4175": "\u0120inform", "4176": "\u0120Smith", "4177": "CT", "4178": "ii", "4179": "\u0120limit", "4180": "\u0120resist", "4181": "................", "4182": "umn", "4183": "\u0120conflic", "4184": "\u0120twe", "4185": "udd", "4186": "\u0120Tom", "4187": "\u0120liter", "4188": "que", "4189": "bon", "4190": "\u0120hair", "4191": "\u0120eventually", "4192": "\u0120pus", "4193": "\u0120helped", "4194": "\u0120agg", "4195": "orney", "4196": "\u0120Apple", "4197": "\u0120fit", "4198": "\u0120Sur", "4199": "\u0120prem", "4200": "\u0120sales", "4201": "\u0120seconds", "4202": "\u0120strength", "4203": "\u0120feeling", "4204": "\u00bf\u00bd", "4205": "\u0120tour", "4206": "\u0120knows", "4207": "oom", "4208": "\u0120exerc", "4209": "\u0120somew", "4210": "\u00ef\u00bf\u00bd", "4211": ">>", "4212": "\u0120spokes", "4213": "\u0120ideas", "4214": "\u0120regist", "4215": "soft", "4216": "\u0120Del", "4217": "\u0120PC", "4218": "\u0120propos", "4219": "\u0120launch", "4220": "\u0120bottom", "4221": "TH", "4222": "\u0120Please", "4223": "vest", "4224": "itz", "4225": "\u0120Inter", "4226": "\u0120script", "4227": "\u0120rat", "4228": "arning", "4229": "\u0120il", "4230": "\u0120Jer", "4231": "\u0120Are", "4232": "\u0120whatever", "4233": "oken", "4234": "cience", "4235": "\u0120mode", "4236": "\u0120agree", "4237": "\u0120sources", "4238": "\u0120initial", "4239": "\u0120restrict", "4240": "\u0120wonder", "4241": "usion", "4242": "####", "4243": "\u0120Sil", "4244": "ville", "4245": "\u0120burn", "4246": "tw", "4247": "asion", "4248": "\u0120\u00c2\u00a3", "4249": "\u0120nor", "4250": "uing", "4251": "\u0120reached", "4252": "\u0120sun", "4253": "\u0120categ", "4254": "igration", "4255": "\u0120cook", "4256": "\u0120promot", "4257": "\u0120male", "4258": "\u0120climate", "4259": "\u0120fix", "4260": "\u0120alleged", "4261": "UR", "4262": "alled", "4263": "\u0120images", "4264": "Cont", "4265": "ota", "4266": "\u0120schools", "4267": "ios", "4268": "\u0120drop", "4269": "\u0120stream", "4270": "\u0120Mo", "4271": "\u0120previously", "4272": "aling", "4273": "\u0120pet", "4274": "\u0120double", "4275": "\u0120(@", "4276": "annel", "4277": "\u0120default", "4278": "ties", "4279": "\u0120rank", "4280": "\u0120Dec", "4281": "\u0120Council", "4282": "\u0120weapon", "4283": "\u0120stock", "4284": "\u0120analy", "4285": "\u0120Str", "4286": "\u0120picture", "4287": "\u0120Police", "4288": "ference", "4289": "\u0120century", "4290": "\u0120citizens", "4291": "\u0120onto", "4292": "\u0120expand", "4293": "\u0120hero", "4294": "\u0120Sol", "4295": "\u0120wild", "4296": "\u0120update", "4297": "\u0120customers", "4298": "ront", "4299": "def", "4300": "\u0120lik", "4301": "\u0120criminal", "4302": "\u0120Christian", "4303": "SP", "4304": "76", "4305": "\u0120leaving", "4306": "\u0120otherwise", "4307": "\u0120Dist", "4308": "\u0120basis", "4309": "52", "4310": "53", "4311": "icip", "4312": "\u0120Ber", "4313": "\u0120recommend", "4314": "\u0120floor", "4315": "\u0120crowd", "4316": "oles", "4317": "\u012070", "4318": "\u0120central", "4319": "\u0120Ev", "4320": "\u0120dream", "4321": "\u0120download", "4322": "\u0120confir", "4323": "\u0120Thom", "4324": "\u0120window", "4325": "\u0120happens", "4326": "\u0120unit", "4327": "\u0120tend", "4328": "\u0120spl", "4329": "\u0120becomes", "4330": "\u0120fighting", "4331": "\u0120predict", "4332": "\u0120Press", "4333": "\u0120Power", "4334": "\u0120heavy", "4335": "aked", "4336": "\u0120fan", "4337": "orter", "4338": "ategy", "4339": "BA", "4340": "izes", "4341": "\u0120spend", "4342": "Here", "4343": "\u01202007", "4344": "\u0120adop", "4345": "\u0120Ham", "4346": "\u0120football", "4347": "\u0120Port", "4348": "oday", "4349": "51", "4350": "ampions", "4351": "\u0120transfer", "4352": "ht", "4353": "\u012038", "4354": "term", "4355": "acity", "4356": "\u0120bur", "4357": "],", "4358": "ternal", "4359": "rig", "4360": "but", "4361": "\u0120therefore", "4362": "\u0120Because", "4363": "resp", "4364": "rey", "4365": "\u0120mission", "4366": "Some", "4367": "\u0120noted", "4368": "\u0120assum", "4369": "\u0120disease", "4370": "\u0120edit", "4371": "\u0120progress", "4372": "rd", "4373": "\u0120Brown", "4374": "ocal", "4375": "\u0120adding", "4376": "\u0120raised", "4377": "\u0120Any", "4378": "\u0120tick", "4379": "\u0120seeing", "4380": "\u0120People", "4381": "\u0120agreement", "4382": "\u0120server", "4383": "\u0120wat", "4384": "\u0120debate", "4385": "\u0120supposed", "4386": "iling", "4387": "\u0120largest", "4388": "\u0120successful", "4389": "\u0120Pri", "4390": "\u0120Democratic", "4391": "\u0120jump", "4392": "\u0120Syria", "4393": "\u0120owners", "4394": "\u0120offers", "4395": "\u0120shooting", "4396": "\u0120effic", "4397": "sey", "4398": "\u0120haven", "4399": "verse", "4400": "tered", "4401": "\u0120Light", "4402": "imal", "4403": "\u0120Big", "4404": "\u0120defend", "4405": "\u0120beat", "4406": "\u0120records", "4407": "%)", "4408": "\u0120scen", "4409": "\u0120employees", "4410": "\u0120devices", "4411": "hem", "4412": "\u0120commer", "4413": "\u0120Mex", "4414": "\u0120benefit", "4415": "\u0120Prof", "4416": "\u0120illeg", "4417": "\u0120surface", "4418": "\u0120Also", "4419": "\u0120harm", "4420": "ingly", "4421": "wide", "4422": "\u0120Alex", "4423": "\u0120shut", "4424": "\u0120Cur", "4425": "\u0120lose", "4426": "pm", "4427": "\u0120challenge", "4428": "semb", "4429": "\u0120station", "4430": "\u0120intelligence", "4431": "\u0120accur", "4432": "\u0120Flor", "4433": "\u0120requires", "4434": "\u0120Mal", "4435": "bum", "4436": "\u0120hospital", "4437": "\u0120spirit", "4438": "\u0120offered", "4439": "\u0120produce", "4440": "\u0120Commun", "4441": "\u0120creating", "4442": "\u0120cris", "4443": "spect", "4444": "\u0120ended", "4445": "\u0120daily", "4446": "\u0120voters", "4447": "lands", "4448": "ias", "4449": "ih", "4450": "ona", "4451": "\u0120smart", "4452": "\u0120Office", "4453": "\u0120Lord", "4454": "rial", "4455": "\u0120Internet", "4456": "\u0120circum", "4457": "\u0120extremely", "4458": "'.", "4459": "\u0120opinion", "4460": "\u0120Mil", "4461": "\u0120gain", "4462": "BS", "4463": "\u0120Fin", "4464": "yp", "4465": "\u0120useful", "4466": "\u0120budget", "4467": "\u0120comfort", "4468": "isf", "4469": "\u0120background", "4470": "eline", "4471": "\u0120episode", "4472": "\u0120enemy", "4473": "\u0120trial", "4474": "\u0120establish", "4475": "date", "4476": "\u0120Cap", "4477": "\u0120continues", "4478": "\u0120showing", "4479": "\u0120Union", "4480": "with", "4481": "\u0120posted", "4482": "\u0120System", "4483": "\u0120eat", "4484": "rian", "4485": "\u0120rise", "4486": "\u0120Germany", "4487": "ils", "4488": "\u0120signed", "4489": "\u0120vill", "4490": "\u0120grand", "4491": "mor", "4492": "\u0120England", "4493": "\u0120projects", "4494": "umber", "4495": "\u0120conference", "4496": "za", "4497": "\u0120responsible", "4498": "\u0120Arab", "4499": "\u0120learned", "4500": "\u00e2\u0122\u0136\u00e2\u0122\u0136", "4501": "ipping", "4502": "\u0120George", "4503": "OC", "4504": "\u0120returned", "4505": "\u0120Australia", "4506": "\u0120brief", "4507": "Qu", "4508": "\u0120brand", "4509": "illing", "4510": "abled", "4511": "\u0120highest", "4512": "\u0120train", "4513": "\u0120Commission", "4514": "while", "4515": "\u0120nom", "4516": "ception", "4517": "\u0120mut", "4518": "\u0120Blue", "4519": "\u0120incident", "4520": "vant", "4521": "86", "4522": "\u0120ID", "4523": "\u0120nuclear", "4524": "74", "4525": "\u0120Like", "4526": "\u0120RE", "4527": "\u0120Micro", "4528": "li", "4529": "mail", "4530": "\u0120charges", "4531": "89", "4532": "\u0120adjust", "4533": "ado", "4534": "\u0120earth", "4535": "NA", "4536": "\u0120prices", "4537": "PA", "4538": "\u0120draft", "4539": "\u0120runs", "4540": "\u0120candidate", "4541": "enses", "4542": "\u0120management", "4543": "\u0120Phil", "4544": "\u0120Miss", "4545": "\u0120teach", "4546": "gram", "4547": "\u0120understanding", "4548": "ait", "4549": "icago", "4550": "Add", "4551": "\u0120Ep", "4552": "secut", "4553": "\u0120separate", "4554": "\u0120instance", "4555": "\u0120eth", "4556": "\u0120unless", "4557": "********", "4558": "\u0120Fore", "4559": "inate", "4560": "\u0120operations", "4561": "Sp", "4562": "\u0120faith", "4563": "gar", "4564": "\u0120Church", "4565": "ronic", "4566": "\u0120config", "4567": "osure", "4568": "\u0120activities", "4569": "\u0120traditional", "4570": "\u012036", "4571": "\u0120direction", "4572": "\u0120machine", "4573": "\u0120surround", "4574": "\u0120push", "4575": "unction", "4576": "\u0120EU", "4577": "\u0120easier", "4578": "\u0120argument", "4579": "GB", "4580": "\u0120micro", "4581": "\u0120spending", "4582": "izations", "4583": "\u0120theory", "4584": "adow", "4585": "\u0120calling", "4586": "\u0120Last", "4587": "\u0120der", "4588": "\u0120influence", "4589": "\u0120commit", "4590": "\u0120photo", "4591": "\u0120unc", "4592": "istry", "4593": "gn", "4594": "aste", "4595": "acks", "4596": "\u0120disp", "4597": "ady", "4598": "do", "4599": "\u0120Good", "4600": "\u0120`", "4601": "\u0120wish", "4602": "\u0120revealed", "4603": "\u00c2\u0142\u00c2\u0142", "4604": "lig", "4605": "\u0120enforce", "4606": "\u0120Committee", "4607": "\u0120chem", "4608": "\u0120miles", "4609": "\u0120interested", "4610": "\u0120solution", "4611": "icy", "4612": "inct", "4613": "\u0120->", "4614": "\u0120Det", "4615": "\u0120removed", "4616": "\u0120compar", "4617": "eah", "4618": "\u0120plant", "4619": "\u0120Since", "4620": "\u0120achieve", "4621": "\u0120advantage", "4622": "\u0120slightly", "4623": "bing", "4624": "\u0120placed", "4625": "under", "4626": "2015", "4627": "\u0120Mad", "4628": "\u0120tim", "4629": "oses", "4630": "\u0120cru", "4631": "\u0120Rock", "4632": "\u0120mostly", "4633": "\u0120negative", "4634": "\u0120setting", "4635": "\u0120produced", "4636": "\u0120mur", "4637": "\u0120connection", "4638": "\u0120Mer", "4639": "\u0120driver", "4640": "\u0120executive", "4641": "\u0120assault", "4642": "\u0120born", "4643": "\u0120Ver", "4644": "tained", "4645": "\u0120structure", "4646": "\u0120reduce", "4647": "\u0120decades", "4648": "\u0120ded", "4649": "uke", "4650": "\u0120Many", "4651": "idden", "4652": "\u0120league", "4653": "Se", "4654": "\u0120join", "4655": "\u0120disco", "4656": "\u0120die", "4657": "cks", "4658": "actions", "4659": "\u0120assess", "4660": "agn", "4661": "\u0120goals", "4662": "ours", "4663": "IR", "4664": "\u0120senior", "4665": "iller", "4666": "mod", "4667": "ipment", "4668": "ocol", "4669": "uy", "4670": "\u0120Que", "4671": "\u0120parties", "4672": "irgin", "4673": "\u0120learning", "4674": "itable", "4675": "\u0120street", "4676": "\u0120camera", "4677": "App", "4678": "\u0120skills", "4679": "bre", "4680": "cious", "4681": "\u0120celebr", "4682": "\u0120Franc", "4683": "\u0120existing", "4684": "\u0120willing", "4685": "lor", "4686": "\u0120id", "4687": "\u0120Space", "4688": "\u0120critical", "4689": "\u0120La", "4690": "ortunately", "4691": "\u0120serve", "4692": "\u0120cold", "4693": "\u0120species", "4694": "TS", "4695": "\u0120animals", "4696": "\u0120Bay", "4697": "\u0120older", "4698": "\u0120Under", "4699": "estic", "4700": "\u0120Tre", "4701": "\u0120teacher", "4702": "\u0120prefer", "4703": "vis", "4704": "\u0120thread", "4705": "\u0120Matt", "4706": "\u0120manager", "4707": "\u00e3\u0125\u00bb", "4708": "\u0120professional", "4709": "\u0120Vol", "4710": "\u0120notes", "4711": "These", "4712": "ula", "4713": "\u0120fresh", "4714": "ented", "4715": "uzz", "4716": "edy", "4717": "clusion", "4718": "\u0120Rel", "4719": "\u0120doubt", "4720": "EO", "4721": "\u0120opened", "4722": "\u0120Bit", "4723": "Advertisement", "4724": "\u0120guess", "4725": "\u0120UN", "4726": "\u0120sequ", "4727": "\u0120explain", "4728": "otten", "4729": "\u0120attract", "4730": "aks", "4731": "\u0120string", "4732": "\u0120context", "4733": "ossible", "4734": "\u0120Republicans", "4735": "\u0120solid", "4736": "\u0120cities", "4737": "\u0120asking", "4738": "\u0120random", "4739": "ups", "4740": "uries", "4741": "arant", "4742": "dden", "4743": "gl", "4744": "\u0120Florida", "4745": "\u0120depend", "4746": "\u0120Scott", "4747": "\u012033", "4748": "\u0120iT", "4749": "icon", "4750": "\u0120mentioned", "4751": "\u01202000", "4752": "\u0120claimed", "4753": "\u0120definitely", "4754": "ulf", "4755": "\u0120core", "4756": "\u0120opening", "4757": "\u0120Const", "4758": "which", "4759": "\u0120Tra", "4760": "AG", "4761": "72", "4762": "\u0120believed", "4763": "ada", "4764": "\u012048", "4765": "\u0120Security", "4766": "yright", "4767": "\u0120Pet", "4768": "\u0120Lou", "4769": "\u0120holding", "4770": "================", "4771": "\u0120ice", "4772": "\u0120brow", "4773": "\u0120authorities", "4774": "host", "4775": "word", "4776": "\u0120score", "4777": "\u0120Div", "4778": "\u0120cells", "4779": "\u0120transl", "4780": "\u0120neighbor", "4781": "\u0120remove", "4782": "uct", "4783": "\u0120district", "4784": "\u0120According", "4785": "\u0120worse", "4786": "\u0120concerns", "4787": "\u0120presidential", "4788": "\u0120policies", "4789": "\u0120Hall", "4790": "73", "4791": "\u0120hus", "4792": "AY", "4793": "\u01202006", "4794": "\u0120Jud", "4795": "\u0120independent", "4796": "\u0120Justice", "4797": "iliar", "4798": "print", "4799": "ighter", "4800": "\u0120protection", "4801": "zen", "4802": "\u0120sudden", "4803": "house", "4804": "\u0120Jes", "4805": "PR", "4806": "\u0120Inf", "4807": "\u0120bul", "4808": "\u0120_", "4809": "\u0120Service", "4810": "\u0120PR", "4811": "\u0120strategy", "4812": "ffect", "4813": "\u0120girls", "4814": "\u0120missing", "4815": "oyal", "4816": "\u0120Team", "4817": "ulated", "4818": "\u0120dat", "4819": "\u0120politics", "4820": "abor", "4821": "According", "4822": "\u0120spell", "4823": "\u0120graph", "4824": "orthern", "4825": "TC", "4826": "Ab", "4827": "\u0120labor", "4828": "isher", "4829": "\u0120kick", "4830": "\u0120iTunes", "4831": "\u0120steps", "4832": "poses", "4833": "\u0120smaller", "4834": "En", "4835": "bert", "4836": "\u0120roll", "4837": "\u0120researchers", "4838": "\u0120closed", "4839": "\u0120transport", "4840": "\u0120lawy", "4841": "________________", "4842": "\u0120Chicago", "4843": "\u0120aspect", "4844": "\u0120none", "4845": "\u0120marriage", "4846": "96", "4847": "\u0120elements", "4848": "\u0120Fre", "4849": "\u0120Sal", "4850": "\u0120dram", "4851": "FC", "4852": "top", "4853": "equ", "4854": "\u0120hearing", "4855": "\u0120supported", "4856": "\u0120testing", "4857": "cohol", "4858": "\u0120massive", "4859": "\u0120stick", "4860": "\u0120guard", "4861": "isco", "4862": "phone", "4863": "From", "4864": "However", "4865": "\u0120border", "4866": "\u0120copy", "4867": "ography", "4868": "list", "4869": "71", "4870": "\u0120owner", "4871": "class", "4872": "ruit", "4873": "rate", "4874": "\u0120Once", "4875": "\u0120digital", "4876": "\u0120task", "4877": "ERS", "4878": "\u0120incred", "4879": "tes", "4880": "++", "4881": "\u0120France", "4882": "\u0120breat", "4883": "owl", "4884": "\u0120issued", "4885": "\u0120Western", "4886": "\u0120detect", "4887": "\u0120partners", "4888": "\u0120shared", "4889": "\u0120Call", "4890": "\u0120cancer", "4891": "ache", "4892": "ribe", "4893": "\u0120explained", "4894": "\u0120heat", "4895": "{\"", "4896": "\u0120investment", "4897": "\u0120Book", "4898": "\u0120wood", "4899": "\u0120tools", "4900": "\u0120Although", "4901": "\u0120belief", "4902": "\u0120crisis", "4903": "\u0120ge", "4904": "\u0120MP", "4905": "\u0120operation", "4906": "type", "4907": "~~", "4908": "ga", "4909": "\u0120contains", "4910": "anta", "4911": "\u0120express", "4912": "\u0120Group", "4913": "\u0120Journal", "4914": "ka", "4915": "\u0120amb", "4916": "\u0120USA", "4917": "\u0120finding", "4918": "\u0120funding", "4919": "how", "4920": "\u0120established", "4921": "ideos", "4922": "\u0120degree", "4923": "\u0120dangerous", "4924": "anging", "4925": "\u0120freedom", "4926": "pport", "4927": "outhern", "4928": "\u0120church", "4929": "\u0120catch", "4930": "\u0120Two", "4931": "\u0120presence", "4932": "\u0120Guard", "4933": "Up", "4934": "\u0120authority", "4935": "\u0120Project", "4936": "\u0120button", "4937": "\u0120consequ", "4938": "\u0120valid", "4939": "\u0120weak", "4940": "\u0120starts", "4941": "\u0120reference", "4942": "\u0120Mem", "4943": "\")", "4944": "UN", "4945": "orage", "4946": "\u0120Open", "4947": "\u0120collection", "4948": "ym", "4949": "gency", "4950": "\u0120beautiful", "4951": "ros", "4952": "\u0120tells", "4953": "\u0120waiting", "4954": "nel", "4955": "\u0120providing", "4956": "\u0120Democrats", "4957": "\u0120daughter", "4958": "\u0120master", "4959": "\u0120purposes", "4960": "\u0120Japanese", "4961": "\u0120equal", "4962": "\u0120turns", "4963": "\u0120documents", "4964": "\u0120watching", "4965": "Res", "4966": "\u0120ran", "4967": "2014", "4968": "\u0120reject", "4969": "\u0120Korea", "4970": "\u0120victims", "4971": "Level", "4972": "erences", "4973": "\u0120witness", "4974": "\u012034", "4975": "\u0120reform", "4976": "coming", "4977": "\u0120occup", "4978": "\u0120caught", "4979": "\u0120traffic", "4980": "ading", "4981": "\u0120models", "4982": "ario", "4983": "\u0120served", "4984": "\u0120batter", "4985": "uate", "4986": "\u0120Secretary", "4987": "\u0120agreed", "4988": "\u0120truly", "4989": "ynam", "4990": "\u0120Ret", "4991": "\u0120units", "4992": "\u0120Research", "4993": "hand", "4994": "azine", "4995": "\u0120Mike", "4996": "\u0120variety", "4997": "otal", "4998": "\u0120amazing", "4999": "\u0120confirmed", "5000": "\u0120entirely", "5001": "\u0120purchase", "5002": "\u0120element", "5003": "\u0120cash", "5004": "\u0120determine", "5005": "De", "5006": "\u0120cars", "5007": "\u0120Wall", "5008": "\u00e2\u0138", "5009": "\u0120views", "5010": "\u0120drugs", "5011": "\u0120department", "5012": "\u0120Step", "5013": "uit", "5014": "\u012039", "5015": "asure", "5016": "\u0120Class", "5017": "\u0120covered", "5018": "\u0120Bank", "5019": "\u0120mere", "5020": "uana", "5021": "\u0120multi", "5022": "\u0120mix", "5023": "\u0120unlike", "5024": "levision", "5025": "\u0120stopped", "5026": "\u0120sem", "5027": "\u0120Gal", "5028": "ules", "5029": "\u0120wel", "5030": "\u0120Johnson", "5031": "la", "5032": "\u0120skill", "5033": "\u0120becoming", "5034": "rie", "5035": "\u0120appropriate", "5036": "fe", "5037": "ellow", "5038": "\u0120Prot", "5039": "ulate", "5040": "ocation", "5041": "\u0120weekend", "5042": "odies", "5043": "\u0120sites", "5044": "\u0120animal", "5045": "\u0120Tim", "5046": "\u0120scale", "5047": "\u0120charged", "5048": "\u0120instruct", "5049": "illa", "5050": "\u0120methods", "5051": "\u0120cert", "5052": "\u0120judge", "5053": "\u0120Hel", "5054": "\u0120dollars", "5055": "\u0120standing", "5056": "\u0120Squ", "5057": "\u0120debt", "5058": "liam", "5059": "\u0120driving", "5060": "\u0120Sum", "5061": "\u0120Edition", "5062": "\u0120album", "5063": "andon", "5064": "IF", "5065": "\u0120Uk", "5066": "63", "5067": "ader", "5068": "\u0120commercial", "5069": "esh", "5070": "\u0120Government", "5071": "\u0120discovered", "5072": "\u0120output", "5073": "\u0120Hillary", "5074": "\u0120Carol", "5075": "\u01202005", "5076": "\u0120abuse", "5077": "ancing", "5078": "\u0120switch", "5079": "\u0120annual", "5080": "Tw", "5081": "\u0120stated", "5082": "agement", "5083": "inner", "5084": "\u0120democr", "5085": "\u0120residents", "5086": "\u0120allowing", "5087": "\u0120factors", "5088": "odd", "5089": "\u0120fuck", "5090": "emies", "5091": "\u0120occurred", "5092": "oti", "5093": "\u0120north", "5094": "\u0120Public", "5095": "\u0120injury", "5096": "\u0120insurance", "5097": "CL", "5098": "olly", "5099": "\u00e3\u0122", "5100": "\u0120repeated", "5101": "\u0120arms", "5102": "anged", "5103": "\u0120construction", "5104": "\u0120fle", "5105": "PU", "5106": "icians", "5107": "\u0120forms", "5108": "\u0120McC", "5109": "antic", "5110": "\u0120mental", "5111": "pire", "5112": "\u0120equipment", "5113": "\u0120fant", "5114": "\u0120discussion", "5115": "\u0120regarding", "5116": "kin", "5117": "arp", "5118": "\u0120chair", "5119": "ogue", "5120": "\u0120proceed", "5121": "\u0120Id", "5122": "Our", "5123": "\u0120murder", "5124": "Man", "5125": "\u012049", "5126": "asp", "5127": "\u0120supply", "5128": "\u0120input", "5129": "\u0120wealth", "5130": "liament", "5131": "\u0120proced", "5132": "orial", "5133": "\u0120Stat", "5134": "\u0120NFL", "5135": "hens", "5136": "\u0120Institute", "5137": "\u0120putting", "5138": "ournament", "5139": "etic", "5140": "\u0120located", "5141": "\u0120kid", "5142": "eria", "5143": "run", "5144": "\u0120princ", "5145": "\u0120!", "5146": "going", "5147": "\u0120Bet", "5148": "\u0120clot", "5149": "\u0120telling", "5150": "\u0120proposed", "5151": "iot", "5152": "orry", "5153": "\u0120funds", "5154": "gment", "5155": "\u0120Life", "5156": "\u0120baby", "5157": "\u0120Back", "5158": "\u0120spoke", "5159": "Image", "5160": "\u0120earn", "5161": "\u0120AT", "5162": "gu", "5163": "\u0120exchange", "5164": "\u0120Lin", "5165": "oving", "5166": "\u0120pair", "5167": "More", "5168": "azon", "5169": "\u0120arrested", "5170": "\u0120killing", "5171": "can", "5172": "\u0120Card", "5173": "yd", "5174": "\u0120identified", "5175": "\u0120mobile", "5176": "\u0120thanks", "5177": "onym", "5178": "\u0120Form", "5179": "\u0120hundreds", "5180": "\u0120Chris", "5181": "\u0120Cat", "5182": "\u0120trend", "5183": "hat", "5184": "\u0120Av", "5185": "oman", "5186": "\u0120electric", "5187": "\u0120Wil", "5188": "SE", "5189": "Of", "5190": "\u0120restaur", "5191": "oted", "5192": "\u0120trig", "5193": "\u0120nine", "5194": "\u0120bomb", "5195": "Why", "5196": "\u00c2\u00af", "5197": "\u0120coverage", "5198": "\u0120appeal", "5199": "\u0120Robert", "5200": "\u0120Sup", "5201": "\u0120finished", "5202": "\u0120flow", "5203": "\u0120deliver", "5204": "\u0120calcul", "5205": "\u0120photos", "5206": "\u0120phil", "5207": "\u0120pieces", "5208": "\u0120appre", "5209": "kes", "5210": "\u0120rough", "5211": "Do", "5212": "\u0120partner", "5213": "\u0120concerned", "5214": "\u012037", "5215": "\u0120Gen", "5216": "Col", "5217": "ctors", "5218": "\u0120=>", "5219": "state", "5220": "\u0120suggested", "5221": "\u0120Force", "5222": "CE", "5223": "\u0120herself", "5224": "\u0120Plan", "5225": "works", "5226": "ooth", "5227": "rency", "5228": "\u0120corner", "5229": "\u0120husband", "5230": "\u0120internet", "5231": "\u0120Aut", "5232": "ems", "5233": "osen", "5234": "\u0120Atl", "5235": "gen", "5236": "\u0120balance", "5237": "62", "5238": "\u0120sounds", "5239": "text", "5240": "\u0120arr", "5241": "oves", "5242": "\u0120millions", "5243": "\u0120radio", "5244": "\u0120satisf", "5245": "\u0120Dam", "5246": "Mr", "5247": "Go", "5248": "Spe", "5249": "\u0120combat", "5250": "rant", "5251": "\u0120Gree", "5252": "\u0120fuel", "5253": "\u0120distance", "5254": "\u0120tests", "5255": "\u0120decre", "5256": "\u0120Er", "5257": "\u0120managed", "5258": "DS", "5259": "\u0120tit", "5260": "\u0120measures", "5261": "\u0120Liber", "5262": "\u0120attend", "5263": "ashed", "5264": "\u0120Jose", "5265": "\u0120Night", "5266": "dit", "5267": "\u0120Nov", "5268": "\u0120End", "5269": "outs", "5270": "\u0120generation", "5271": "\u0120advoc", "5272": "yth", "5273": "\u0120conversation", "5274": "\u0120Sky", "5275": "active", "5276": "cel", "5277": "rier", "5278": "\u0120Frank", "5279": "\u0120gender", "5280": "\u0120concent", "5281": "\u0120carried", "5282": "anda", "5283": "\u0120Virgin", "5284": "\u0120arrived", "5285": "icide", "5286": "aded", "5287": "\u0120failure", "5288": "\u0120minimum", "5289": "lets", "5290": "\u0120worst", "5291": "\u0120keeping", "5292": "\u0120intended", "5293": "\u0120illegal", "5294": "\u0120subsc", "5295": "\u0120determined", "5296": "\u0120trip", "5297": "Yes", "5298": "\u0120raise", "5299": "\u0120~", "5300": "\u0120feels", "5301": "\u0120package", "5302": "\u0120Jo", "5303": "hi", "5304": "2016", "5305": "real", "5306": "\u0120fra", "5307": "\u0120symb", "5308": "Me", "5309": "ucky", "5310": "pret", "5311": "\u0120Kh", "5312": "\u0120Edit", "5313": "\u0120Web", "5314": "emic", "5315": "\u0120Color", "5316": "\u0120justice", "5317": "Int", "5318": "\u0120farm", "5319": "cknow", "5320": "\">", "5321": "eless", "5322": "\u0120reduced", "5323": "\u0120500", "5324": "xx", "5325": "\u0120Rad", "5326": "\u0120Wood", "5327": "\u0120clin", "5328": "\u0120hyp", "5329": "iler", "5330": "ura", "5331": "kins", "5332": "85", "5333": "61", "5334": "\u0120Their", "5335": "\u0120Mary", "5336": "\u0120san", "5337": "\u0120novel", "5338": "\u0120Who", "5339": "\u0120capacity", "5340": "\u0120impossible", "5341": "\u0120plays", "5342": "\u0120minister", "5343": "ijuana", "5344": "icate", "5345": "\u0120Set", "5346": "\u0120fram", "5347": "\u0120ing", "5348": "\u0120communities", "5349": "\u0120FBI", "5350": "ita", "5351": "\u0120bon", "5352": "\u0120strateg", "5353": "\u0120interests", "5354": "lock", "5355": "gers", "5356": "mas", "5357": "\u0120AND", "5358": "\u0120conflict", "5359": "\u0120requirements", "5360": "\u0120sac", "5361": "\u0120operating", "5362": "ini", "5363": "related", "5364": "\u0120committed", "5365": "\u0120relatively", "5366": "\u0120south", "5367": "\u00c2\u00af\u00c2\u00af", "5368": "\u0120afford", "5369": "\u0120identity", "5370": "\u0120decisions", "5371": "\u0120accused", "5372": "place", "5373": "\u0120victory", "5374": "och", "5375": "iat", "5376": "Name", "5377": "Com", "5378": "tion", "5379": "eds", "5380": "\u0120seek", "5381": "\u0120tight", "5382": "\u0120Images", "5383": "\u0120initi", "5384": "\u0120humans", "5385": "\u0120familiar", "5386": "\u0120audience", "5387": "\u0120internal", "5388": "venture", "5389": "\u0120sides", "5390": "\u0120TO", "5391": "\u0120dim", "5392": "\u0120conclud", "5393": "\u0120appoint", "5394": "\u0120enforcement", "5395": "\u0120Jim", "5396": "\u0120Association", "5397": "\u0120circumst", "5398": "\u0120Canadian", "5399": "\u0120joined", "5400": "\u0120differences", "5401": "\u0120Los", "5402": "\u0120protest", "5403": "\u0120twice", "5404": "win", "5405": "\u0120glass", "5406": "arsh", "5407": "\u0120Army", "5408": "\u0120expression", "5409": "\u0120decide", "5410": "\u0120planning", "5411": "ania", "5412": "\u0120handle", "5413": "\u0120Microsoft", "5414": "\u0120Nor", "5415": "\u0120maximum", "5416": "\u0120Rev", "5417": "\u0120sea", "5418": "\u0120eval", "5419": "\u0120helps", "5420": "ref", "5421": "\u0120bound", "5422": "\u0120mouth", "5423": "\u0120standards", "5424": "\u0120clim", "5425": "\u0120Camp", "5426": "\u0120Fox", "5427": "cles", "5428": "\u0120army", "5429": "\u0120Techn", "5430": "acking", "5431": "xy", "5432": "SS", "5433": "\u012042", "5434": "\u0120bug", "5435": "\u0120Ukrain", "5436": "\u0120Max", "5437": "\u0120Jones", "5438": "\u0120Show", "5439": "lo", "5440": "\u0120planet", "5441": "\u012075", "5442": "\u0120winning", "5443": "\u0120faster", "5444": "\u0120spect", "5445": "\u0120broken", "5446": "TR", "5447": "\u0120defined", "5448": "\u0120healthy", "5449": "\u0120competition", "5450": "https", "5451": "\u0120Island", "5452": "\u0120Fe", "5453": "\u0120announce", "5454": "\u0120Cup", "5455": "\u0120Instead", "5456": "\u0120client", "5457": "\u0120possibly", "5458": "section", "5459": "ocket", "5460": "look", "5461": "\u0120finish", "5462": "\u0120crew", "5463": "\u0120reserv", "5464": "\u0120editor", "5465": "\u0120hate", "5466": "\u0120sale", "5467": "\u0120controvers", "5468": "\u0120pages", "5469": "wing", "5470": "\u0120numer", "5471": "\u0120opposition", "5472": "\u01202004", "5473": "\u0120refuge", "5474": "\u0120flight", "5475": "\u0120apart", "5476": "\u0120Lat", "5477": "Americ", "5478": "\u0120Africa", "5479": "\u0120applications", "5480": "\u0120Palest", "5481": "\u0120Bur", "5482": "\u0120gar", "5483": "\u0120Social", "5484": "\u0120upgr", "5485": "\u0120shape", "5486": "\u0120speaking", "5487": "ansion", "5488": "ao", "5489": "\u0120Sn", "5490": "\u0120worry", "5491": "\u0120Britain", "5492": "Please", "5493": "roud", "5494": "\u0120hun", "5495": "\u0120introduced", "5496": "\u0120diet", "5497": "Ind", "5498": "\u0120Second", "5499": "\u0120functions", "5500": "uts", "5501": "\u0120Each", "5502": "\u0120Jeff", "5503": "\u0120stress", "5504": "\u0120accounts", "5505": "\u0120guarant", "5506": "\u0120Ann", "5507": "edia", "5508": "\u0120honest", "5509": "\u0120tree", "5510": "\u0120African", "5511": "\u0120Bush", "5512": "},", "5513": "\u0120sch", "5514": "\u0120Only", "5515": "\u0120fif", "5516": "igan", "5517": "\u0120exercise", "5518": "\u0120Exp", "5519": "\u0120scientists", "5520": "\u0120legislation", "5521": "\u0120Work", "5522": "\u0120Spr", "5523": "\u00c3\u0124", "5524": "\u0120Human", "5525": "\u0120\u00e8", "5526": "\u0120survey", "5527": "\u0120rich", "5528": "rip", "5529": "\u0120maintain", "5530": "\u0120flo", "5531": "\u0120leadership", "5532": "stream", "5533": "\u0120Islamic", "5534": "\u012001", "5535": "\u0120College", "5536": "\u0120magic", "5537": "\u0120Prime", "5538": "\u0120figures", "5539": "2017", "5540": "inder", "5541": "xual", "5542": "\u0120Dead", "5543": "\u0120absolutely", "5544": "\u0120fourth", "5545": "\u0120presented", "5546": "respond", "5547": "rible", "5548": "\u0120alcohol", "5549": "ato", "5550": "\u0120DE", "5551": "porary", "5552": "\u0120grab", "5553": "\u0120vari", "5554": "\u0120quant", "5555": "\u0120Photo", "5556": "\u0120plus", "5557": "rick", "5558": "arks", "5559": "\u0120alternative", "5560": "\u0120pil", "5561": "\u0120approx", "5562": "that", "5563": "\u0120objects", "5564": "\u0120Ro", "5565": "\u0120Android", "5566": "\u0120significantly", "5567": "\u0120Road", "5568": "kay", "5569": "Read", "5570": "avor", "5571": "\u0120acknow", "5572": "\u0120HD", "5573": "\u0120Sing", "5574": "Or", "5575": "\u0120Mont", "5576": "\u0120uns", "5577": "prof", "5578": "\u0120negoti", "5579": "\u0120Arch", "5580": "iki", "5581": "\u0120television", "5582": "\u0120Jewish", "5583": "\u0120committee", "5584": "\u0120motor", "5585": "\u0120appearance", "5586": "\u0120sitting", "5587": "\u0120strike", "5588": "\u0120Down", "5589": "comp", "5590": "\u0120Hist", "5591": "\u0120fold", "5592": "acement", "5593": "\u0120Louis", "5594": "\u0120belong", "5595": "\u0120\u00e2\u0122\u00a2", "5596": "\u0120mort", "5597": "\u0120prepared", "5598": "\u012064", "5599": "\u0120Master", "5600": "\u0120indeed", "5601": "\u0120Den", "5602": "\u0120rent", "5603": "TA", "5604": "ourney", "5605": "arc", "5606": "Su", "5607": "97", "5608": "\u0120advice", "5609": "\u0120changing", "5610": "\u0120listed", "5611": "\u0120launched", "5612": "isation", "5613": "\u0120Peter", "5614": "ishes", "5615": "\u0120lived", "5616": "\u0120Mel", "5617": "\u0120Supreme", "5618": "\u0120Federal", "5619": "\u0120);", "5620": "ructure", "5621": "\u0120sets", "5622": "\u0120philos", "5623": "uous", "5624": "\u0120\u00c2\u0142", "5625": "\u0120applied", "5626": "\u0120NOT", "5627": "\u0120housing", "5628": "\u0120Mount", "5629": "\u0120odd", "5630": "\u0120sust", "5631": "DA", "5632": "fficient", "5633": "\u0120?", "5634": "olved", "5635": "\u0120powers", "5636": "\u0120thr", "5637": "\u0120remaining", "5638": "\u0120Water", "5639": "LC", "5640": "\u0120causes", "5641": "\u00e3\u0123\u00ae", "5642": "\u0120manner", "5643": "ads", "5644": "\u0120suggests", "5645": "\u0120ends", "5646": "standing", "5647": "fig", "5648": "\u0120Dun", "5649": "idth", "5650": "\u0120gay", "5651": "\u0120termin", "5652": "\u0120Angeles", "5653": "MS", "5654": "\u0120scientific", "5655": "\u0120coal", "5656": "apers", "5657": "bar", "5658": "\u0120Thomas", "5659": "\u0120sym", "5660": "\u0120Run", "5661": "this", "5662": "PC", "5663": "igrants", "5664": "\u0120minute", "5665": "\u0120District", "5666": "cellent", "5667": "\u0120leaves", "5668": "\u0120completed", "5669": "amin", "5670": "\u0120focused", "5671": "\u0120monitor", "5672": "\u0120vehicles", "5673": "MA", "5674": "\u0120Mass", "5675": "\u0120Grand", "5676": "\u0120affected", "5677": "itutional", "5678": "\u0120construct", "5679": "\u0120follows", "5680": "\u0120ton", "5681": "reens", "5682": "\u0120homes", "5683": "\u0120Ext", "5684": "\u0120Level", "5685": "rast", "5686": "\u0120Ir", "5687": "\u0120elim", "5688": "\u0120largely", "5689": "\u0120Joe", "5690": "\u0120votes", "5691": "alls", "5692": "\u0120businesses", "5693": "\u0120Foundation", "5694": "\u0120Central", "5695": "\u0120yards", "5696": "\u0120materials", "5697": "ulner", "5698": "\u0120guide", "5699": "\u0120closer", "5700": "ums", "5701": "\u0120sports", "5702": "eder", "5703": "Just", "5704": "\u0120taxes", "5705": "84", "5706": "\u0120Old", "5707": "\u0120decade", "5708": "ola", "5709": "\u0120vir", "5710": "\u0120dropped", "5711": "\u0120delay", "5712": "itect", "5713": "\u0120secure", "5714": "stein", "5715": "level", "5716": "\u0120treated", "5717": "\u0120filed", "5718": "aine", "5719": "\u0120van", "5720": "\u0120mir", "5721": "\u0120column", "5722": "icted", "5723": "eper", "5724": "\u0120rot", "5725": "\u0120consult", "5726": "\u0120entry", "5727": "\u0120marijuana", "5728": "\u0120Dou", "5729": "\u0120apparently", "5730": "oking", "5731": "clusive", "5732": "\u0120increases", "5733": "ano", "5734": "\u0120specifically", "5735": "\u0120tele", "5736": "ensions", "5737": "\u0120religion", "5738": "abilities", "5739": "\u0120frame", "5740": "\u0120Note", "5741": "\u0120Lee", "5742": "\u0120helping", "5743": "\u0120edge", "5744": "oston", "5745": "\u0120organizations", "5746": "\u00c3\u0125", "5747": "\u0120Both", "5748": "hips", "5749": "\u0120bigger", "5750": "\u0120boost", "5751": "\u0120Stand", "5752": "\u0120row", "5753": "uls", "5754": "abase", "5755": "\u0120rid", "5756": "Let", "5757": "aren", "5758": "rave", "5759": "\u0120stret", "5760": "PD", "5761": "\u0120vision", "5762": "\u0120wearing", "5763": "\u0120appreci", "5764": "\u0120award", "5765": "\u0120Use", "5766": "\u0120factor", "5767": "war", "5768": "ulations", "5769": ")(", "5770": "\u0120god", "5771": "\u0120territ", "5772": "\u0120param", "5773": "asts", "5774": "87", "5775": "\u0120enemies", "5776": "\u0120Games", "5777": "FF", "5778": "\u0120accident", "5779": "Well", "5780": "\u0120Martin", "5781": "TER", "5782": "\u0120ath", "5783": "\u0120Hell", "5784": "\u0120forg", "5785": "\u0120veter", "5786": "\u0120Medic", "5787": "free", "5788": "\u0120stars", "5789": "\u0120expensive", "5790": "\u0120acad", "5791": "rawn", "5792": "\u0120Whe", "5793": "\u0120lock", "5794": "\u0120format", "5795": "\u0120soldiers", "5796": "sm", "5797": "\u0120agent", "5798": "\u0120responsibility", "5799": "ora", "5800": "\u0120Science", "5801": "\u0120rapid", "5802": "\u0120tough", "5803": "\u0120Jesus", "5804": "\u0120believes", "5805": "ML", "5806": "\u0120wear", "5807": "lete", "5808": "\u00c3\u0125\u00c3\u0124", "5809": "\u0120Dri", "5810": "\u0120commission", "5811": "\u0120Bob", "5812": "Oh", "5813": "aped", "5814": "\u0120warm", "5815": "\u00c3\u0125\u00c3\u0124\u00c3\u0125\u00c3\u0124", "5816": "\u01202003", "5817": "ortion", "5818": "\u0120hasn", "5819": "uster", "5820": "\u0120univers", "5821": "\u0120Ill", "5822": "\u0120king", "5823": "ologies", "5824": "94", "5825": "\u0120Tem", "5826": "\u0120Mos", "5827": "\u0120patient", "5828": "\u0120Mexico", "5829": "cean", "5830": "\u0120Death", "5831": "\u0120Sanders", "5832": "you", "5833": "\u0120Cast", "5834": "\u0120Company", "5835": "pty", "5836": "\u0120happening", "5837": "FP", "5838": "\u0120Battle", "5839": "\u0120bought", "5840": "Am", "5841": "Mod", "5842": "Us", "5843": "uters", "5844": "\u0120Cre", "5845": "\u0120Those", "5846": "\u012044", "5847": "iser", "5848": "\u0120soul", "5849": "\u0120Top", "5850": "\u0120Harry", "5851": "\u0120Aw", "5852": "\u0120seat", "5853": "ffee", "5854": "\u0120revolution", "5855": "\u0120(\"", "5856": "\u0120During", "5857": "ette", "5858": "\u0120ring", "5859": "\u0120offensive", "5860": "\u0120returns", "5861": "\u0120videos", "5862": "\u0120discl", "5863": "\u0120famous", "5864": "enced", "5865": "\u0120Sign", "5866": "\u0120River", "5867": "\u0120300", "5868": "PM", "5869": "\u0120Bus", "5870": "\u0120CH", "5871": "\u0120candidates", "5872": "arden", "5873": "\u0120percentage", "5874": "\u0120visual", "5875": "\u0120thank", "5876": "\u0120trouble", "5877": "nergy", "5878": "\u01202001", "5879": "\u0120prove", "5880": "ashion", "5881": "\u0120enh", "5882": "\u0120Long", "5883": "UM", "5884": "\u0120connected", "5885": "\u0120possibility", "5886": "Over", "5887": "\u0120expert", "5888": "\u0120library", "5889": "arts", "5890": "\u0120Director", "5891": "\u0120fellow", "5892": "92", "5893": "irty", "5894": "\u0120dry", "5895": "\u0120signs", "5896": "\u0120Love", "5897": "\u0120quiet", "5898": "foot", "5899": "\u0120pure", "5900": "\u0120Hun", "5901": "\u0120filled", "5902": "phas", "5903": "\u0120Elect", "5904": "endment", "5905": "\u0120Expl", "5906": "\u0120unable", "5907": "ns", "5908": "mo", "5909": "\u0120vast", "5910": "obe", "5911": "\u0120identify", "5912": "apping", "5913": "\u0120Carolina", "5914": "gress", "5915": "\u0120prote", "5916": "\u0120fish", "5917": "\u0120circumstances", "5918": "razy", "5919": "\u0120Phot", "5920": "\u0120bodies", "5921": "\u0120Mur", "5922": "\u0120developing", "5923": "\u0120AR", "5924": "\u0120experienced", "5925": "\u0120substant", "5926": "\u0120Board", "5927": "esome", "5928": "\u0120domestic", "5929": "\u0120combined", "5930": "\u0120Put", "5931": "\u0120chemical", "5932": "\u0120Child", "5933": "\u0120pool", "5934": "\u0120Cy", "5935": "\u0120egg", "5936": "cons", "5937": "sters", "5938": "\u0120hurt", "5939": "\u0120markets", "5940": "\u0120conservative", "5941": "\u0120supporters", "5942": "\u0120agencies", "5943": "idel", "5944": "Ob", "5945": "urb", "5946": "\u012043", "5947": "\u0120Defense", "5948": "ye", "5949": "\u0120Ap", "5950": "dule", "5951": "\u0120temperature", "5952": "\u0120conducted", "5953": "\u0120Chief", "5954": "\u0120pulled", "5955": "\u0120fol", "5956": "Last", "5957": "onto", "5958": "osis", "5959": "VER", "5960": "Des", "5961": "\u0120Pan", "5962": "First", "5963": "\u0120advance", "5964": "\u0120license", "5965": "rors", "5966": "\u0120Jon", "5967": "\u0120imagine", "5968": "\u0120hell", "5969": "\u0120fixed", "5970": "\u0120incor", "5971": "osite", "5972": "\u0120Log", "5973": "icken", "5974": "]:", "5975": "\u0120surprise", "5976": "hab", "5977": "\u0120craft", "5978": "olt", "5979": "\u0120Jul", "5980": "\u0120dial", "5981": "\u0120relevant", "5982": "\u0120entered", "5983": "\u0120leads", "5984": "\u0120AD", "5985": "\u0120Clean", "5986": "\u0120pictures", "5987": "essor", "5988": "\u0120alt", "5989": "\u0120paying", "5990": "Per", "5991": "\u0120Market", "5992": "\u0120updates", "5993": "amily", "5994": "\u0120Type", "5995": "\u0120Home", "5996": "\u012055", "5997": "sembly", "5998": "rome", "5999": "83", "6000": "\u0120greatest", "6001": "\u0120height", "6002": "\u0120heav", "6003": "aints", "6004": "\u0120listen", "6005": "aser", "6006": "\u0120SH", "6007": "\u0120capable", "6008": "acle", "6009": "\u0120perspect", "6010": "inating", "6011": "\u0120offering", "6012": "rypt", "6013": "\u0120Develop", "6014": "abin", "6015": "rc", "6016": "\u0120bright", "6017": "alty", "6018": "arrow", "6019": "\u0120suppl", "6020": "inding", "6021": "acked", "6022": "gypt", "6023": "\u0120Another", "6024": "pg", "6025": "\u0120Virginia", "6026": "\u0120Lu", "6027": "\u0120planned", "6028": "\u0120pit", "6029": "\u0120sweet", "6030": "Type", "6031": "\u0120Di", "6032": "\u0120typically", "6033": "\u0120Francisco", "6034": "\u0120prospect", "6035": "\u0120Dan", "6036": "\u0120teen", "6037": "rees", "6038": "\u0120sched", "6039": "\u0120hol", "6040": "\u0120scr", "6041": "\u0120lots", "6042": "life", "6043": "\u0120newsp", "6044": "\u0120forget", "6045": "\u0120None", "6046": "\u0120Middle", "6047": "\u0120Ryan", "6048": "edd", "6049": "\u0120severe", "6050": "\u0120suit", "6051": "ller", "6052": "93", "6053": "\u0120correspond", "6054": "\u0120explos", "6055": "uations", "6056": "\u0120flag", "6057": "game", "6058": "rid", "6059": "\u0120prin", "6060": "\u0120Data", "6061": "\u0120deploy", "6062": "\u0120Enter", "6063": "suit", "6064": "ghan", "6065": "\u0120Men", "6066": "\u0120thoughts", "6067": "\u0120matters", "6068": "\u0120adapt", "6069": "\u0120Ari", "6070": "\u0120fill", "6071": "\u0120forth", "6072": "\u0120sam", "6073": "\u012041", "6074": "\u0120payment", "6075": "\u0120Hor", "6076": "\u0120spring", "6077": "duc", "6078": "\u0120losing", "6079": "\u0120bringing", "6080": "FO", "6081": "ala", "6082": "\u0120distribution", "6083": "hered", "6084": "bour", "6085": "\u0120Israeli", "6086": "oma", "6087": "\u0120combination", "6088": "\u0120plenty", "6089": "VE", "6090": "Can", "6091": "\u0120Haw", "6092": "\u0120perman", "6093": "\u0120Special", "6094": "\u0120tow", "6095": "\u0120seeking", "6096": "\u0120examples", "6097": "\u0120classes", "6098": "cr", "6099": "\u0120beer", "6100": "\u0120moves", "6101": "\u0120IP", "6102": "\u0120Kn", "6103": "\u0120panel", "6104": "Even", "6105": "\u0120properly", "6106": "\u0120ris", "6107": "\u0120plug", "6108": "\u0120estimated", "6109": "Every", "6110": "\u0120defensive", "6111": "agraph", "6112": "\u0120pregn", "6113": "\u0120instit", "6114": "\u0120Vict", "6115": "\u0120volume", "6116": "\u0120positions", "6117": "\u0120links", "6118": "\u0120Program", "6119": "\u0120Week", "6120": "agues", "6121": "\u0120transform", "6122": "ker", "6123": "\u0120CEO", "6124": "\u0120cas", "6125": "\u0120opponent", "6126": "\u0120tweet", "6127": "\u0120Code", "6128": "\u0120shop", "6129": "\u0120fly", "6130": "\u0120talks", "6131": "\u0120bag", "6132": "Phone", "6133": "\u0120aid", "6134": "\u0120plants", "6135": "\u012065", "6136": "\u0120attorney", "6137": "arters", "6138": "quest", "6139": "\u0120Magic", "6140": "\u0120begins", "6141": "\u0120myster", "6142": "\u0120environmental", "6143": "\u0120storage", "6144": "NN", "6145": "\u0120marg", "6146": "\u0120ske", "6147": "\u0120metal", "6148": "elly", "6149": "\u0120ordered", "6150": "\u0120remained", "6151": "\u0120loved", "6152": "\u0120prompt", "6153": "\u0120updated", "6154": "\u0120experts", "6155": "\u0120walking", "6156": "\u0120ancient", "6157": "\u0120performed", "6158": "ATE", "6159": "\u0120neither", "6160": "iency", "6161": "\u0120manufacture", "6162": "\u0120Pak", "6163": "\u0120selected", "6164": "\u0120mine", "6165": "\u0120ultimately", "6166": "\u0120explan", "6167": "\u0120label", "6168": "\u0120Services", "6169": "ributed", "6170": "Trump", "6171": "\u0120syn", "6172": "\u0120Ult", "6173": "SC", "6174": "\u0120meat", "6175": "\u0120giant", "6176": "\u0120Wars", "6177": "\u0120ON", "6178": "\u0120adm", "6179": "\u0120interpret", "6180": "\u0120evening", "6181": "\u0120evil", "6182": "\u0120Boston", "6183": "\u0120Wild", "6184": "\u0120\u00c3", "6185": "\u0120Bitcoin", "6186": "\u0120Amazon", "6187": "Dr", "6188": "\u0120Information", "6189": "\u0120obviously", "6190": "\u0120advanced", "6191": "Photo", "6192": "olar", "6193": "\u0120weather", "6194": "\u0120symbol", "6195": "\u0120sole", "6196": "\u0120potentially", "6197": "oster", "6198": "\u0120originally", "6199": "mun", "6200": "300", "6201": "aze", "6202": "essions", "6203": "\u0120deck", "6204": "\u0120stood", "6205": "\u0120youth", "6206": "\u0120Bern", "6207": "Rep", "6208": "\u0120Test", "6209": "\u0120basically", "6210": "otic", "6211": "\u0120involve", "6212": "olit", "6213": "lyn", "6214": "See", "6215": "\u0120aircraft", "6216": "\u0120confirm", "6217": "EW", "6218": "\u0120messages", "6219": "\u0120Richard", "6220": "\u0120kit", "6221": "\u0120prohib", "6222": "\u0120vulner", "6223": "isters", "6224": "\u0120existence", "6225": "\u0120turning", "6226": "\u0120SP", "6227": "\u0120desire", "6228": "\u0120flat", "6229": "\u0120ment", "6230": "season", "6231": "anges", "6232": "\u0120neighborhood", "6233": "\u0120Lake", "6234": "ATION", "6235": "\u0120pointed", "6236": "bur", "6237": "\u0120innov", "6238": "ucks", "6239": "UL", "6240": "\u0120professor", "6241": "\u0120expressed", "6242": "AB", "6243": "icious", "6244": "\u01202002", "6245": "\u0120Dev", "6246": "\u0120session", "6247": "\u0120bare", "6248": "sen", "6249": "\u0120diss", "6250": "\u0120Cath", "6251": "\u0120Pass", "6252": "\u0120Point", "6253": "\u0120doctor", "6254": "orrow", "6255": "ailed", "6256": "\u0120Rub", "6257": "\u0120DC", "6258": "\u0120Charl", "6259": "person", "6260": "\u0120writer", "6261": "ighters", "6262": "ureau", "6263": "\u0120oblig", "6264": "\u0120recorded", "6265": "\u0120broke", "6266": "\u0120orders", "6267": "ilty", "6268": "\u0120motion", "6269": "inity", "6270": "law", "6271": "adium", "6272": "\u0120immigration", "6273": "\u0120contrast", "6274": "\u0120batt", "6275": "\u0120excellent", "6276": "\u0120technical", "6277": "ami", "6278": "\u0120tun", "6279": "\u0120cloud", "6280": "\u0120Year", "6281": "geon", "6282": "\u0120creation", "6283": "\u0120strange", "6284": "\u0120auth", "6285": "\u0120fort", "6286": "born", "6287": "\u0120extent", "6288": "\u0120Today", "6289": "\u0120Club", "6290": "\u0120rain", "6291": "\u0120sample", "6292": "\u0120accepted", "6293": "\u0120tact", "6294": "\u0120fired", "6295": "\u0120Son", "6296": "\u0120stands", "6297": "\u0120boot", "6298": "\u012047", "6299": "\u0120statements", "6300": "\u0120versions", "6301": "\u0120selling", "6302": "ounded", "6303": "\u01201990", "6304": "\u0120weren", "6305": "\u0120Watch", "6306": "\u0120experiment", "6307": "Post", "6308": "\u0120retail", "6309": "uled", "6310": "Inst", "6311": "unte", "6312": "\u00e3\u0125\u00bc", "6313": "\u0120depart", "6314": "\u0120bond", "6315": "ivery", "6316": "ompl", "6317": "\u0120reaction", "6318": "\u0120Syrian", "6319": "\u0120Pac", "6320": "apped", "6321": "aniel", "6322": "DP", "6323": "\u0120resolution", "6324": "\u0120react", "6325": "\u0120approved", "6326": "onom", "6327": "mond", "6328": "\u0120Offic", "6329": "---", "6330": "\u0120replace", "6331": "\u0120tack", "6332": "\u0120sport", "6333": "\u0120chain", "6334": "\u0120emergency", "6335": "rad", "6336": "\u0120Palestin", "6337": "\u012046", "6338": "\u0120automatically", "6339": "\u0120route", "6340": "\u0120pal", "6341": "\u0120banks", "6342": "\u0120Paris", "6343": "\u0120Media", "6344": "road", "6345": "icing", "6346": "ixt", "6347": "isted", "6348": "\u0120grew", "6349": "\u0120coord", "6350": "\u0120Where", "6351": "omin", "6352": "\u0120subs", "6353": "\u00ef\u00bf\u00bd\u00ef\u00bf\u00bd", "6354": "\u0120\u00c2\u00b1", "6355": "\u0120corporate", "6356": "\u0120selection", "6357": "noon", "6358": "\u0120Report", "6359": "cs", "6360": "cluding", "6361": "orders", "6362": "anche", "6363": "\u0120Its", "6364": "\u0120slowly", "6365": "\u0120Egypt", "6366": "\u0120Acc", "6367": "\u0120colle", "6368": "iques", "6369": "EX", "6370": "\u0120attempts", "6371": "url", "6372": "\u0120Cross", "6373": "\u0120findings", "6374": "\u0120SC", "6375": "\u0120OR", "6376": "\u0120index", "6377": "ensity", "6378": "\u0120Way", "6379": "\u0120Land", "6380": "\u0120shock", "6381": "dis", "6382": "\u0120dynam", "6383": "\u0120cart", "6384": "mosp", "6385": "Since", "6386": "iest", "6387": "\u0120Boy", "6388": "\u0120storm", "6389": "\u0120Contin", "6390": "2013", "6391": "hew", "6392": "ilit", "6393": "\u0120essential", "6394": "iquid", "6395": "Other", "6396": "ivered", "6397": "\u0120reasonable", "6398": "Act", "6399": "\u0120subsequ", "6400": "\u0120Pack", "6401": "\u0120Fort", "6402": "\u0120considering", "6403": "\u0120university", "6404": "log", "6405": "\u0120married", "6406": "\u0120illust", "6407": "\u0120True", "6408": "\u00a3\u0131", "6409": "\u0120numerous", "6410": "rastructure", "6411": "\u0120seriously", "6412": "\u0120referred", "6413": "ua", "6414": "\u0120consistent", "6415": "onna", "6416": "\u0120Real", "6417": "ruption", "6418": "ciples", "6419": "\u0120facts", "6420": "91", "6421": "otes", "6422": "erg", "6423": "Then", "6424": "\u0120accompl", "6425": "Note", "6426": "\u0120revenue", "6427": "\u0120passing", "6428": "\u0120mal", "6429": "een", "6430": "\u0120Yet", "6431": "\u0120gather", "6432": "terday", "6433": "ework", "6434": "\u0120Author", "6435": "Pe", "6436": "\u0120optim", "6437": "\u0120rub", "6438": "\u0120\u00e8\u00a3\u0131", "6439": "\u0120unknown", "6440": "stone", "6441": "\u0120union", "6442": "olve", "6443": "\u0120opportunities", "6444": "\u0120browser", "6445": "\u0120Wal", "6446": "\u0120Cost", "6447": "\u0120reporting", "6448": "sts", "6449": "pet", "6450": "\u0120sand", "6451": "\u0120suddenly", "6452": "\u0120surprising", "6453": "\u0120VR", "6454": "\u0120somewhat", "6455": "\u0120Bas", "6456": "ulture", "6457": "izz", "6458": "\u0120CD", "6459": "\u0120challenges", "6460": "\u0120settings", "6461": "\u0120experiences", "6462": "\u0120Full", "6463": "\u0120cann", "6464": "\u0120receiving", "6465": "EST", "6466": "\u0120joint", "6467": "\u0120cultural", "6468": "\u0120ast", "6469": "82", "6470": "astern", "6471": "ceived", "6472": "\u0120Cru", "6473": "\u0120bull", "6474": "pired", "6475": "amm", "6476": "\u0120facing", "6477": "power", "6478": "\u0120boss", "6479": "\u0120Hol", "6480": "\u0120instr", "6481": "\u0120increasingly", "6482": "\u0120shift", "6483": "\u0120streets", "6484": "\u0120Williams", "6485": "abb", "6486": "\u0120lie", "6487": "\u0120laugh", "6488": "\u0120Ca", "6489": "PL", "6490": "\u0120adults", "6491": "\u0120customer", "6492": "\u0120obtained", "6493": "\u0120supporting", "6494": "html", "6495": "fire", "6496": "\u0120detailed", "6497": "\u0120picked", "6498": "\u0120Right", "6499": "lder", "6500": "EE", "6501": "stood", "6502": "\u0120Kim", "6503": "\u0120wire", "6504": "\u0120sight", "6505": "\u0120developers", "6506": "\u0120persons", "6507": "\u0120sad", "6508": "\u0120cup", "6509": "\u0120warning", "6510": "\u0120boys", "6511": "long", "6512": "\u0120bird", "6513": "fo", "6514": "\u0120wal", "6515": "\u0120observed", "6516": "\u0120zone", "6517": "iveness", "6518": "\u0120channel", "6519": "cript", "6520": "\u0120refused", "6521": "\u0120Again", "6522": "\u0120suc", "6523": "\u0120spokesman", "6524": "\u0120Ref", "6525": "rite", "6526": "ouston", "6527": "\u00e3\u0125\u00b3", "6528": "\u0120Sher", "6529": "\u0120acts", "6530": "\u0120Name", "6531": "\u0120struggle", "6532": "arry", "6533": "ometimes", "6534": "\u0120discrim", "6535": "HT", "6536": "\u0120category", "6537": "\u0120realize", "6538": "\u0120employee", "6539": "\u0120Afghan", "6540": "enger", "6541": "\u0120guns", "6542": "\u0120Steve", "6543": "\u0120Mot", "6544": "\u0120Ol", "6545": "oked", "6546": "\u0120thick", "6547": "\u0120fairly", "6548": "illy", "6549": "\u0120surve", "6550": "\u0120Mat", "6551": "weight", "6552": "\u00e2\u0136", "6553": "\u0120troops", "6554": "\u0120agents", "6555": "\u0120battery", "6556": "\u0120motiv", "6557": "\u00c3\u00a1", "6558": "Sec", "6559": "den", "6560": "overy", "6561": "LS", "6562": "\u0120flu", "6563": "\u0120confident", "6564": "\u0120Oper", "6565": "\u0120empty", "6566": "\u0120phen", "6567": "\u0120sector", "6568": "\u0120excited", "6569": "\u0120remote", "6570": "aph", "6571": "oen", "6572": "\u0120destroyed", "6573": "\u0120moral", "6574": "\u0120HP", "6575": "\u0120Ron", "6576": "\u0120dress", "6577": "\u0120Bat", "6578": "\u0120lit", "6579": "\u0120MS", "6580": "\u0120af", "6581": "HL", "6582": "rum", "6583": "isms", "6584": "\u0120shouldn", "6585": "\u0120sympt", "6586": "\u0120Toronto", "6587": "hetic", "6588": "\u0120carbon", "6589": "\u0120installed", "6590": "\u0120violent", "6591": "\u0120solar", "6592": "ja", "6593": "\u0120practices", "6594": "\u0120ride", "6595": "\u0120Penn", "6596": "\u0120improved", "6597": "\u0120audio", "6598": "\u0120behavi", "6599": "\u0120PS", "6600": "\u0120eating", "6601": "Data", "6602": "\u0120Review", "6603": "pass", "6604": "claim", "6605": "uated", "6606": "angers", "6607": "chen", "6608": "\u0120properties", "6609": "\u0120anywhere", "6610": "Another", "6611": "\u0120blow", "6612": "\u0120Jackson", "6613": "\u0120proud", "6614": "\u0120plane", "6615": "lines", "6616": "\u0120square", "6617": "\u0120proof", "6618": "ansas", "6619": "\u0120talked", "6620": "makers", "6621": "\u0120sister", "6622": "\u0120holds", "6623": "\u0120resident", "6624": "\u0120==", "6625": "\u0120resistance", "6626": "\u0120split", "6627": "\u0120prosecut", "6628": "\u0120confidence", "6629": "resents", "6630": "\u0120cuts", "6631": "\u0120exception", "6632": "\u0120zero", "6633": "Getty", "6634": "\u0120copyright", "6635": "\u0120totally", "6636": "ormal", "6637": "ifications", "6638": "\u0120Australian", "6639": "\u0120sick", "6640": "\u0120150", "6641": "\u0120household", "6642": "\u0120fees", "6643": "\u0120drivers", "6644": "ogen", "6645": "\u0120NY", "6646": "\u0120necessarily", "6647": "\u0120regulations", "6648": "earing", "6649": "sl", "6650": "\u0120perspective", "6651": "care", "6652": "icial", "6653": "His", "6654": "\u0120escape", "6655": "\u0120surprised", "6656": "\u0120Van", "6657": "urrent", "6658": "\u0120vac", "6659": "81", "6660": "\u0120Thus", "6661": "\u0120emphas", "6662": "\u0120Champions", "6663": "\u0120Ice", "6664": "\u0120narr", "6665": "\u0120heads", "6666": "\u0120causing", "6667": "bel", "6668": "fortunately", "6669": "\u0120Ma", "6670": "\u0120targets", "6671": "cipl", "6672": "\u0120afternoon", "6673": "\u0120adds", "6674": "\u0120Maybe", "6675": "\u0120Four", "6676": "essed", "6677": "plete", "6678": "\u0120usual", "6679": "cho", "6680": "ingu", "6681": "\u0120withd", "6682": "\u0120Energy", "6683": "\u0120Econom", "6684": "OO", "6685": "\u0120articles", "6686": "\u0120injured", "6687": "\u0120manage", "6688": "\u0120explains", "6689": "\u0120diagn", "6690": "Rec", "6691": "atures", "6692": "\u0120linked", "6693": "\u0120discussed", "6694": "\u0120explo", "6695": "\u0120occasion", "6696": "athan", "6697": "\u0120opposite", "6698": "\u0120faces", "6699": "\u0120denied", "6700": "\u0120Knight", "6701": "\u0120nut", "6702": "\u0120approximately", "6703": "\u0120disappoint", "6704": "onymous", "6705": "\u0120Best", "6706": "\u0120Lo", "6707": "\u0120Hy", "6708": "\u0120Aff", "6709": "\u0120voting", "6710": "anwhile", "6711": "\u0120III", "6712": "\u0120institutions", "6713": "agram", "6714": "\u0120Daily", "6715": "\u0120drag", "6716": "\u0120nearby", "6717": "\u0120guilty", "6718": "\u0120conver", "6719": "Pre", "6720": "ship", "6721": "\u0120reward", "6722": "\u0120philosoph", "6723": "\u0120SS", "6724": "ugh", "6725": "\u0120apps", "6726": "friend", "6727": "\u0120upper", "6728": "\u0120advert", "6729": "\u0120snow", "6730": "\u0120frust", "6731": "\u0120ourselves", "6732": "Fr", "6733": "\u0120Die", "6734": "ampion", "6735": "\u0120dismiss", "6736": "\u0120cere", "6737": "\u0120signal", "6738": "from", "6739": "\u0120).", "6740": "\u012052", "6741": "\u0120crimes", "6742": "itors", "6743": "estival", "6744": "useum", "6745": "\u0120council", "6746": "\u0120Saud", "6747": "May", "6748": "\u0120Gun", "6749": "ician", "6750": "ether", "6751": "\u0120sufficient", "6752": "\u0120Hen", "6753": "sole", "6754": "\u0120historical", "6755": "\u0120Far", "6756": "\u0120Turn", "6757": "\u0120pin", "6758": "\u0120succeed", "6759": "mat", "6760": "lymp", "6761": "\u0120tradition", "6762": "\u0120Ok", "6763": "\u0120cro", "6764": "\u0120description", "6765": "alle", "6766": "\u0120sky", "6767": "Te", "6768": "\u0120widely", "6769": "\u0120wave", "6770": "\u0120definition", "6771": "\u0120Jews", "6772": "\u0120cycle", "6773": "\u0120refere", "6774": "\u0120brings", "6775": "usal", "6776": "\u0120alive", "6777": "\u0120frequently", "6778": "\u0120intention", "6779": "\u0120Control", "6780": "lv", "6781": "ystem", "6782": "\u0120privacy", "6783": "gent", "6784": "rence", "6785": "\u0120Quest", "6786": "\u0120Christmas", "6787": "\u0120rail", "6788": "\u0120cooper", "6789": "\u0120tested", "6790": "\u0120Capt", "6791": "asks", "6792": "\u0120comfortable", "6793": "\u0120delivered", "6794": "scape", "6795": "\u0120depth", "6796": "\u0120GOP", "6797": "\u0120writes", "6798": "\u0120assets", "6799": "\u0120sav", "6800": "iments", "6801": "\u0120transition", "6802": "\u0120artist", "6803": "\u0120Look", "6804": "\u0120lob", "6805": "\u0120components", "6806": "arity", "6807": "\u0120walked", "6808": "\u0120root", "6809": "\u0120participants", "6810": "\u0120noticed", "6811": "\u0120resc", "6812": "\u0120nav", "6813": "\u0120Administ", "6814": "da", "6815": "utral", "6816": "plate", "6817": "\u0120importance", "6818": "\u0120assert", "6819": "iously", "6820": "cription", "6821": "\u0120injuries", "6822": "\u0120Check", "6823": "\u0120registered", "6824": "\u0120intent", "6825": "\u0120missed", "6826": "ographic", "6827": "\u0120sentence", "6828": "ounter", "6829": "\u0120assistance", "6830": "evin", "6831": "\u0120database", "6832": "\u0120buildings", "6833": "\u0120classic", "6834": "\u0120thinks", "6835": "\u0120Ohio", "6836": "Pr", "6837": "ugg", "6838": "\u0120fee", "6839": "pan", "6840": "\u0120effectively", "6841": "\u0120facility", "6842": "\u0120bear", "6843": "\u0120chapter", "6844": "\u0120dogs", "6845": "\u0120Columb", "6846": "\u0120latter", "6847": "itial", "6848": "\u0120admitted", "6849": "TV", "6850": "\u0120Georg", "6851": "\u0120posts", "6852": "\\\\", "6853": "\u0120lawyer", "6854": "\u0120equival", "6855": "\u0120mand", "6856": "\u0120controlled", "6857": "\u0120Walk", "6858": "\u0120Andrew", "6859": "\u0120menu", "6860": "amental", "6861": "\u0120protected", "6862": "va", "6863": "\u0120administr", "6864": "oral", "6865": "\u0120rein", "6866": "\u0120Sar", "6867": "\u0120amounts", "6868": "\u0120native", "6869": "\u0120Moon", "6870": "\u0120represents", "6871": "\u0120abandon", "6872": "\u0120carrying", "6873": "\u0120tank", "6874": "mary", "6875": "\u0120declared", "6876": "Tube", "6877": "\u0120hat", "6878": "\u0120punish", "6879": "ellect", "6880": "mes", "6881": "\u0120universe", "6882": "\u0120Rod", "6883": "phy", "6884": "\u0120infrastructure", "6885": "\u012051", "6886": "\u0120opposed", "6887": "ownt", "6888": "ca", "6889": "\u0120Make", "6890": "\u0120hardware", "6891": "\u0120coffee", "6892": "Rel", "6893": "bal", "6894": "world", "6895": "\u0120Saf", "6896": "\u0120Sea", "6897": "inals", "6898": "\u0120owned", "6899": "\u0120hall", "6900": "ersion", "6901": "\u0120describe", "6902": "\u0120Pot", "6903": "\u0120portion", "6904": "\u0120atmosp", "6905": "\u0120governments", "6906": "\u0120depending", "6907": "\u0120offense", "6908": "\u0120trick", "6909": "awa", "6910": "\u0120Line", "6911": "\u0120Vis", "6912": "\u0120Hard", "6913": "\u0120Orig", "6914": "\u0120Click", "6915": "\u0120desk", "6916": "\u0120Valley", "6917": "\u0120Sov", "6918": "\u0120movies", "6919": "\u0120remark", "6920": "\u0120mail", "6921": "\u0120conscious", "6922": "\u0120ruling", "6923": "\u0120Rights", "6924": "\u0120medic", "6925": "hent", "6926": "\u0120Women", "6927": "><", "6928": "\u0120replaced", "6929": "\u0120Prem", "6930": "\u0120Thanks", "6931": "\u0120renew", "6932": "\u0120Ball", "6933": "iform", "6934": "\u0120shots", "6935": "Comm", "6936": "\u0120armed", "6937": "\u0120constant", "6938": "\u0120taste", "6939": "\u0120realized", "6940": "\u0120buff", "6941": "\u0120mo", "6942": "\u0120efficient", "6943": "Most", "6944": "oration", "6945": "ifies", "6946": "\u0120communication", "6947": "\u0120flood", "6948": "\u0120consequences", "6949": "\u0120anyway", "6950": "igg", "6951": "\u0120GM", "6952": "\u0120Thank", "6953": "\u0120iron", "6954": "\u0120evolution", "6955": "\u0120Cop", "6956": "twitter", "6957": "\u012095", "6958": "\u0120relationships", "6959": "adel", "6960": "\u0120Young", "6961": "\u0120proposal", "6962": "ayers", "6963": "uilding", "6964": "\u0120Hot", "6965": "ORE", "6966": "cos", "6967": "\u0120collabor", "6968": "PG", "6969": "axy", "6970": "\u0120knowing", "6971": "\u0120supports", "6972": "owed", "6973": "\u0120controls", "6974": "\u0120merely", "6975": "umer", "6976": "\u0120athlet", "6977": "\u0120fashion", "6978": "path", "6979": "\u0120gift", "6980": "\u0120era", "6981": "AND", "6982": "\u0120kinds", "6983": "\u0120Korean", "6984": "\u0120legit", "6985": "ulous", "6986": "\u0120essentially", "6987": "\u0120therap", "6988": "nic", "6989": "\u0120suffered", "6990": "\u0120hur", "6991": "\u0120promise", "6992": "\u0120excess", "6993": "\u0120overw", "6994": "\u0120prime", "6995": "\u0120Houston", "6996": "erry", "6997": "\u0120Ms", "6998": "RS", "6999": "2012", "7000": "\u0120stores", "7001": "\u0120Olymp", "7002": "\u0120journey", "7003": "Although", "7004": "Sub", "7005": "\u0120Educ", "7006": "\u0120Chapter", "7007": "\u0120requests", "7008": "\u0120consumers", "7009": "\u0120tiny", "7010": "\u0120isol", "7011": "\u0120Fair", "7012": "ba", "7013": "\u0120YOU", "7014": "\u0120crash", "7015": "celer", "7016": "\u0120emotional", "7017": "\u0120goods", "7018": "\u0120elected", "7019": "\u0120moder", "7020": "\u0120Linux", "7021": "\u0120blocks", "7022": "\u0120island", "7023": "\u0120Society", "7024": "\u0120elections", "7025": "\u0120broadcast", "7026": "\u0120cheap", "7027": "\u0120nations", "7028": "\u0120seasons", "7029": "400", "7030": "\u0120waste", "7031": "\u0120Sat", "7032": "\u0120fields", "7033": "employ", "7034": "\u0120profile", "7035": "\u0120authors", "7036": "ALL", "7037": "\u0120Gra", "7038": "west", "7039": "\u0120Ty", "7040": "\u0120deaths", "7041": "\u0120vacc", "7042": "\u0120formed", "7043": "\u0120du", "7044": "\u0120ongoing", "7045": "\u0120Muslims", "7046": "elf", "7047": "igure", "7048": "\u0120assume", "7049": "\u0120Ukraine", "7050": "water", "7051": "\u0120coast", "7052": "\u0120voted", "7053": "gor", "7054": "\u0120AS", "7055": "\u0120Michigan", "7056": "aza", "7057": "\u0120Arm", "7058": "iro", "7059": "\u0120flex", "7060": "asters", "7061": "''", "7062": "\u0120welcome", "7063": "arl", "7064": "\u0120locations", "7065": "igation", "7066": "\u0120Fil", "7067": "\u0120buying", "7068": "\u0120architect", "7069": "\u0120harder", "7070": "\u0120Cub", "7071": "\u0120interface", "7072": "\u0120restaurant", "7073": "\u0120discover", "7074": "\u0120exceed", "7075": "\u0120favour", "7076": "gery", "7077": "\u0120duty", "7078": "\u0120pitch", "7079": "ador", "7080": "\u0120Mach", "7081": "boy", "7082": "\u0120responded", "7083": "\u0120extended", "7084": "hers", "7085": "Many", "7086": "raid", "7087": "ifer", "7088": "\u0120Ins", "7089": "Ser", "7090": "\u0120medium", "7091": "she", "7092": "\u0120Sports", "7093": "\u0120magazine", "7094": "utation", "7095": "\u0120limits", "7096": "\u0120Gall", "7097": "\u0120external", "7098": "razil", "7099": "\u0120younger", "7100": "tle", "7101": "\u0120remind", "7102": "\u0120CON", "7103": "\u0120immediate", "7104": "\u0120hidden", "7105": "\u0120volunte", "7106": "\u0120simpl", "7107": "odcast", "7108": "\u0120phase", "7109": "dr", "7110": "\u0120plot", "7111": "\u0120exposure", "7112": "RI", "7113": "ograp", "7114": "vin", "7115": "anish", "7116": "\u0120Acad", "7117": "\u0120Engine", "7118": "\u0120expansion", "7119": "\u0120Pay", "7120": "Your", "7121": "\u0120pushed", "7122": "\u0120Ell", "7123": "\u0120Head", "7124": "\u0120marketing", "7125": "\u0120AC", "7126": "ket", "7127": "\u0120hits", "7128": "\u0120gro", "7129": "\u0120Age", "7130": "\u0120Scot", "7131": "][", "7132": "\u0120stim", "7133": "\u0120iPhone", "7134": "\u012a\u0134", "7135": "\u0120narrow", "7136": "\u0120Getty", "7137": "\u0120Turkey", "7138": "\u0120perfectly", "7139": "\u0120enable", "7140": "utch", "7141": "\u0120precise", "7142": "\u0120regime", "7143": "\u0120shif", "7144": "\u0120compens", "7145": "gun", "7146": "div", "7147": "\u0120chosen", "7148": "\u0120Ken", "7149": "Any", "7150": "\u0120trees", "7151": "\u0120recommended", "7152": "\u0120Ren", "7153": "uable", "7154": "\u0120HT", "7155": "Follow", "7156": "EG", "7157": "\u0120Hand", "7158": "\u0120Kenn", "7159": "\u0120arguments", "7160": "\u0120exists", "7161": "\u0120bike", "7162": "\u0120Conserv", "7163": "\u0120breaking", "7164": "\u0120Gar", "7165": "\u0120crazy", "7166": "\u0120virtual", "7167": "aylor", "7168": "ixel", "7169": "\u01201980", "7170": "\u0120permission", "7171": "\u0120Series", "7172": "\u0120consumer", "7173": "\u0120closely", "7174": "called", "7175": "\u012054", "7176": "\u0120hopes", "7177": "\u0120array", "7178": "\u0120Win", "7179": "\u0120Labour", "7180": "\u0120spons", "7181": "\u0120Ire", "7182": "\u0120pow", "7183": "\u0120readers", "7184": "\u0120employment", "7185": "\u0120creature", "7186": "\u0120resulting", "7187": "\u0120accurate", "7188": "\u0120moments", "7189": "\u0120argued", "7190": "\u0120ped", "7191": "During", "7192": "\u012053", "7193": "\u0120Tal", "7194": "\u0120sought", "7195": "\u0120suffering", "7196": "\u0120icon", "7197": "lee", "7198": "\u0120($", "7199": "alian", "7200": "\u00c2\u00b0", "7201": "\u0120pra", "7202": "\u0120bonus", "7203": "(\"", "7204": "ko", "7205": "\u0120acting", "7206": "DE", "7207": "fall", "7208": "\u0120comparison", "7209": "\u0120smooth", "7210": "\u0120NAS", "7211": "upp", "7212": "\u0120Joseph", "7213": "eping", "7214": "\u0120Take", "7215": "\u0120Mid", "7216": "\u0120sending", "7217": "fast", "7218": "\u0120Fall", "7219": "\u0120dealing", "7220": "user", "7221": "\u0120Organ", "7222": "Co", "7223": "\u0120attached", "7224": "\u0120sees", "7225": "%.", "7226": "\u0120typical", "7227": "ART", "7228": "\u0120finds", "7229": "\u0120Asia", "7230": "umin", "7231": "\u0120Core", "7232": "\u0120Ent", "7233": "inent", "7234": "uce", "7235": "\u0120Blood", "7236": "\u0120Never", "7237": "\u0120emails", "7238": "\u0120highlight", "7239": "\u0120confront", "7240": "atus", "7241": "uted", "7242": "\u0120unus", "7243": "\u0120topic", "7244": "\u0120Adam", "7245": "\u0120ble", "7246": "ati", "7247": "\u0120understood", "7248": "Set", "7249": "struct", "7250": "TP", "7251": "\u0120mob", "7252": "aa", "7253": "\u0120Start", "7254": "pected", "7255": "sell", "7256": "\u0120dedicated", "7257": "\u0120CA", "7258": "uan", "7259": "\u0120songs", "7260": "escription", "7261": "\u0120tech", "7262": "\u0120rape", "7263": "\u0120aside", "7264": "\u0120grant", "7265": "\u012056", "7266": "sub", "7267": "\u0120argue", "7268": "\u0120containing", "7269": "\u0120schedule", "7270": "\u0120liberal", "7271": "\u0120publicly", "7272": "\u0120heavily", "7273": "\u0120Ut", "7274": "iner", "7275": "\u0120Section", "7276": "\u0120Care", "7277": "weet", "7278": "ls", "7279": "Dis", "7280": "\u00e2\u0136\u0122", "7281": "\u0120Follow", "7282": "Back", "7283": "\u0120IT", "7284": "\u0120bes", "7285": "ji", "7286": "\u0120Hit", "7287": "ested", "7288": "\u0120everybody", "7289": "\u0120Swed", "7290": "\u0120femin", "7291": "\u0120facilities", "7292": "\u0120conven", "7293": "Comp", "7294": "\u0120OS", "7295": "core", "7296": "\u0120anx", "7297": "\u0120division", "7298": "\u0120Cam", "7299": "\u0120Stan", "7300": "mates", "7301": "\u0120explore", "7302": "plom", "7303": "\u0120shares", "7304": "pload", "7305": "anes", "7306": "\u0120ideal", "7307": "eters", "7308": "\u0120Base", "7309": "\u0120plastic", "7310": "\u0120distinct", "7311": "\u0120Network", "7312": "\u0120Seattle", "7313": "\u0120trading", "7314": "ensus", "7315": "intend", "7316": "\u0120exhib", "7317": "\u0120initially", "7318": "\u0120Food", "7319": "\u0120thousand", "7320": "\u0120Business", "7321": "acter", "7322": "\u0120paragraph", "7323": "\u0120roughly", "7324": "\u0120www", "7325": "\u0120creative", "7326": "\u0120Conf", "7327": "\u0120consumption", "7328": "\u0120films", "7329": "agan", "7330": "\u0120obtain", "7331": "\u0120tall", "7332": "\u0120tor", "7333": "\u0120acknowled", "7334": "\u0120grown", "7335": "alo", "7336": "KE", "7337": "\u0120400", "7338": "enders", "7339": "taining", "7340": "UG", "7341": "\u0120suicide", "7342": "\u0120watched", "7343": "\u0120List", "7344": "ali", "7345": "rehens", "7346": "\u0120surrounding", "7347": "\u0120pip", "7348": "\u0120flying", "7349": "\u0120Java", "7350": "ordan", "7351": "\u0120serving", "7352": "inations", "7353": "post", "7354": "\u0120sho", "7355": "Av", "7356": "\u0120jail", "7357": "zy", "7358": "\u01201999", "7359": "\u0120</", "7360": "\u0120literally", "7361": "\u0120Sir", "7362": "\u0120exposed", "7363": "\u0120lies", "7364": "star", "7365": "\u0120bat", "7366": "\u0120earned", "7367": "\u0120Dig", "7368": "\u0120specified", "7369": "\u0120Season", "7370": "\u0120degrees", "7371": "Donald", "7372": "\u0120centre", "7373": "\u0120sharing", "7374": "\u0120winter", "7375": "\u0120CO", "7376": "Che", "7377": "\u0120\u00ce", "7378": "MP", "7379": "\u0120unw", "7380": "\u0120fewer", "7381": "\u0120Mir", "7382": "\u0120somewhere", "7383": "\u0120Key", "7384": "\u0120attacked", "7385": "\u0120Kir", "7386": "\u0120domain", "7387": "\u0120stronger", "7388": "\u012099", "7389": "\u0120penalty", "7390": "Id", "7391": "Script", "7392": "\u0120declined", "7393": "\u0120neck", "7394": "\u0120fraud", "7395": "\u0120currency", "7396": "\u0120rising", "7397": "RC", "7398": "\u00e2\u0122\u00a6\u00e2\u0122\u00a6", "7399": "Hz", "7400": "\u0120tab", "7401": "\u0120talent", "7402": "nam", "7403": "\u0120NBA", "7404": "\u0120village", "7405": "\u0120legs", "7406": "\u0120Next", "7407": "Ed", "7408": "\u0120acid", "7409": "\u0120hyd", "7410": "800", "7411": "\u0120involving", "7412": "\u0120Image", "7413": "\u0120Before", "7414": "Fl", "7415": "\u0120yesterday", "7416": "Source", "7417": "\u0120terrorist", "7418": "\u0120sup", "7419": "\u0120synt", "7420": "\u0120Saudi", "7421": "\u0120west", "7422": "\u0120ru", "7423": "burg", "7424": "\u0120visible", "7425": "\u0120struck", "7426": "rison", "7427": "\u0120awesome", "7428": "\u0120drawn", "7429": "\u0120answers", "7430": "\u0120Girl", "7431": "\u0120Ram", "7432": "\u0120threats", "7433": "\u0120defeat", "7434": "osit", "7435": "\u0120vent", "7436": "aturally", "7437": "American", "7438": "enda", "7439": "\u0120Holy", "7440": "\u0120rum", "7441": "%,", "7442": "case", "7443": "\u0120History", "7444": "\u0120YouTube", "7445": "\u0120situations", "7446": "\u0120DNA", "7447": "Ste", "7448": "\u0120saved", "7449": "Item", "7450": "\u0120recip", "7451": "ologist", "7452": "\u0120faced", "7453": "\u0120elig", "7454": "Once", "7455": "\u0120Li", "7456": "uh", "7457": "\u0120mistake", "7458": "\u0120Division", "7459": "\u0120Bell", "7460": "\u0120symptoms", "7461": "\u00c2\u00ae", "7462": "\u0120domin", "7463": "\u0120falling", "7464": "\u0120ending", "7465": "ashes", "7466": "\u0120matches", "7467": "\u0120Online", "7468": "\u0120explanation", "7469": "Def", "7470": "redit", "7471": "\u0120anymore", "7472": "\u0120Total", "7473": "\u0120FOR", "7474": "ushed", "7475": "\u0120letters", "7476": "\u0120risks", "7477": "\u0120OK", "7478": "\u0120reportedly", "7479": ":\\", "7480": "\u0120plate", "7481": "\u0120subjects", "7482": "\u0120attempted", "7483": "ifier", "7484": "iana", "7485": "\u0120unlikely", "7486": "\u0120Though", "7487": "uma", "7488": "\u0120Invest", "7489": "\u0120Prin", "7490": "ican", "7491": "\u0120Dar", "7492": "\u0120Colorado", "7493": "aug", "7494": "\u0120veget", "7495": "aos", "7496": "ria", "7497": "\u0120shel", "7498": "\u0120marked", "7499": "\u0120()", "7500": "\u0120spr", "7501": "po", "7502": "\u0120Link", "7503": "\u0120defe", "7504": "\u0120Jr", "7505": "\u0120theme", "7506": "\u0120passion", "7507": "\u0120Pen", "7508": "\u0120info", "7509": "izer", "7510": "\u0120shit", "7511": "\u0120Civil", "7512": "apse", "7513": "cre", "7514": "\u0120poly", "7515": "\u0120component", "7516": "\u0120Charles", "7517": "\u0120Ireland", "7518": "\u0120Prov", "7519": "\u0120doctors", "7520": "\u0120granted", "7521": "\u0120paint", "7522": "\u0120honor", "7523": "\u0120smoke", "7524": "\u0120payments", "7525": "\u0120primarily", "7526": "\u0120Kingdom", "7527": "rich", "7528": "atell", "7529": "\u0120deals", "7530": "\u0120scheduled", "7531": "\u0120fundamental", "7532": "\u0120protein", "7533": "\u0120newspaper", "7534": "\u0120clients", "7535": "ython", "7536": "\u0120Date", "7537": "hus", "7538": "\u0120feedback", "7539": "\u0120stretch", "7540": "\u0120cock", "7541": "\u0120hotel", "7542": "\u0120Queen", "7543": "\u0120sugar", "7544": "\u0120ju", "7545": "\u0120milk", "7546": "\u0120approval", "7547": "\u0120Live", "7548": "\u0120equivalent", "7549": "efully", "7550": "\u0120insert", "7551": "zona", "7552": "\u0120extension", "7553": "dri", "7554": "John", "7555": "\u0120accomp", "7556": "Sm", "7557": "\u0120Fund", "7558": "\u0120constantly", "7559": "\u0120``", "7560": "\u0120generated", "7561": "\u0120Action", "7562": "\u0120Psych", "7563": "\u0120Tri", "7564": "\u0120recognize", "7565": "\u0120vary", "7566": "pha", "7567": "\u0120Ra", "7568": "df", "7569": "etch", "7570": "\u0120Soviet", "7571": "Two", "7572": "\u0120patterns", "7573": "\u0120profession", "7574": "aning", "7575": "Time", "7576": "\u0120Lim", "7577": "\u0120colors", "7578": "\u0120Az", "7579": "\u0120TR", "7580": "\u0120infect", "7581": "\u0120phenomen", "7582": "\u0120shell", "7583": "Also", "7584": "\u0120puts", "7585": "\u0120delivery", "7586": "\u0120brown", "7587": "\u0120processing", "7588": "\u0120lights", "7589": "essage", "7590": "\u0120Brook", "7591": "\u0120Aud", "7592": "lation", "7593": "\u0120industrial", "7594": "Like", "7595": "\u0120Brazil", "7596": "rous", "7597": "ESS", "7598": "\u0120Luc", "7599": "\u0120somehow", "7600": "\u012085", "7601": "\u0120proport", "7602": "\u0120politicians", "7603": "\u0120indicate", "7604": "\u0120hole", "7605": "\u0120techniques", "7606": "\u0120competitive", "7607": "\u0120phr", "7608": "\u0120vo", "7609": "istent", "7610": "\u0120Dream", "7611": "\u0120campus", "7612": "\u0120aspects", "7613": "\u0120helpful", "7614": "\u0120shield", "7615": "orse", "7616": "\u0120trigger", "7617": "mal", "7618": "\u012058", "7619": "\u0120tort", "7620": "\u0120personally", "7621": "\u0120tag", "7622": "\u0120keeps", "7623": "\u0120Video", "7624": "\u0120bench", "7625": "\u0120gap", "7626": "aire", "7627": "\u0120east", "7628": "\u0120recovery", "7629": "perial", "7630": "\u0120profit", "7631": "\u0120Mic", "7632": "\u012057", "7633": "\u0120colon", "7634": "\u0120strongly", "7635": "style", "7636": "\u0120allegations", "7637": "han", "7638": "\u0120reporters", "7639": "jo", "7640": "rine", "7641": "arget", "7642": "andal", "7643": "\u012003", "7644": "\u0120flash", "7645": "trans", "7646": "\u0120strict", "7647": "\u0120parking", "7648": "\u0120Pakistan", "7649": "\u0120li", "7650": "\u0120weird", "7651": "\u0120Eric", "7652": "\u0120regions", "7653": "\u0120Jun", "7654": "\u0120intellect", "7655": "\u0120WH", "7656": "oding", "7657": "ributes", "7658": "upid", "7659": "\u0120Tit", "7660": "\u0120finger", "7661": "oria", "7662": "\u0120elev", "7663": "\u0120Field", "7664": "\u0120conclusion", "7665": ";;", "7666": "\u0120feelings", "7667": "\u0120extensive", "7668": "\u0120mixed", "7669": "\u0120neuro", "7670": "vy", "7671": "\u0120harass", "7672": "\u0120Circ", "7673": "ouch", "7674": "\u0120territory", "7675": "\u0120successfully", "7676": "Mar", "7677": "\u0120ingred", "7678": "\u0120overwhel", "7679": "\u0120layer", "7680": "View", "7681": "\u0120allies", "7682": "illance", "7683": "\u0120Three", "7684": "\u0120bunch", "7685": "\u0120normally", "7686": "\u0120networks", "7687": "\u0120sacr", "7688": "\u0120CIA", "7689": "bles", "7690": "\u0120chose", "7691": "\u0120opponents", "7692": "\u0120regardless", "7693": "\u0120franch", "7694": "\u0120pref", "7695": "\u0120Po", "7696": "\u0120bridge", "7697": "anna", "7698": "\u0120Silver", "7699": "\u0120wage", "7700": "page", "7701": "rior", "7702": "\u0120radical", "7703": "\u0120Little", "7704": "\u0120manip", "7705": "\u0120secretary", "7706": "\u0120gang", "7707": "DR", "7708": "FA", "7709": "\u0120decent", "7710": "\u0120Spirit", "7711": "\u0120uncle", "7712": "\u0120Development", "7713": "\u0120investors", "7714": "\u0120walls", "7715": "\u0120publish", "7716": "\u0120generate", "7717": "issions", "7718": "car", "7719": "\u0120promote", "7720": "\u0120cutting", "7721": "\u0120chest", "7722": "\u0120drinking", "7723": "\u0120collected", "7724": "\u012072", "7725": "\u0120hoping", "7726": "\u0120embr", "7727": "gorith", "7728": "\u0120warned", "7729": "\u0120instructions", "7730": "OG", "7731": "\u0120Did", "7732": "\u0120Agency", "7733": "\u0120gear", "7734": "\u0120criticism", "7735": "\u0120Further", "7736": "\u0120util", "7737": "anny", "7738": "Red", "7739": "\u0120counsel", "7740": "\u0120Asian", "7741": "\u0120reduction", "7742": "pool", "7743": "\u0120teaching", "7744": "\u0120deeply", "7745": "iy", "7746": "\u0120estimates", "7747": "\u0120choices", "7748": "\u0120permanent", "7749": "inem", "7750": "kel", "7751": "\u0120fasc", "7752": "pse", "7753": "file", "7754": "\u0120Low", "7755": "\u0120Person", "7756": "\u0120tournament", "7757": "stal", "7758": "\u0120mel", "7759": "UST", "7760": "\u0120Ray", "7761": "azi", "7762": "Val", "7763": "\u0120contained", "7764": "\u0120Holly", "7765": "\u0120wake", "7766": "\u0120reveal", "7767": "\u0120processes", "7768": "\u0120ISIS", "7769": "\u012009", "7770": "\u0120blind", "7771": "\u0120steel", "7772": "\u0120Bad", "7773": "\u0120carefully", "7774": "appy", "7775": "roit", "7776": "\u0120gaming", "7777": "\u0120houses", "7778": "\u0120Coll", "7779": "\u0120truck", "7780": "erm", "7781": "\u0120scored", "7782": "\u0120occas", "7783": "return", "7784": "bound", "7785": "var", "7786": "\u0120sharp", "7787": "\u0120afraid", "7788": "\u0120EX", "7789": "amber", "7790": "cific", "7791": "\u0120scheme", "7792": "NC", "7793": "\u0120Polit", "7794": "\u0120decline", "7795": "\u01201998", "7796": "\u0120pushing", "7797": "\u0120possession", "7798": "\u0120privile", "7799": "\u0120teachers", "7800": "\u0120yield", "7801": "HA", "7802": "\u0120Davis", "7803": "itled", "7804": "########", "7805": "\u0120rig", "7806": "\u0120Daniel", "7807": "acon", "7808": "\u0120hide", "7809": "uten", "7810": "\u0120colleagues", "7811": "\u0120principles", "7812": "\u0120loud", "7813": "\u0120sin", "7814": "\u0120Demon", "7815": "\u0120stone", "7816": "\u012002", "7817": "\u0120taught", "7818": "\u0120terrible", "7819": "\u0120stuck", "7820": "\u0120Policy", "7821": "teen", "7822": "\u0120implementation", "7823": "\u0120BBC", "7824": "\u0120API", "7825": "\u0120wheel", "7826": "allas", "7827": "\u0120champions", "7828": "olars", "7829": "player", "7830": "\u0120repeatedly", "7831": "\u0120Still", "7832": "\u0120likes", "7833": "asty", "7834": "ester", "7835": "\u0120Catholic", "7836": "RL", "7837": "\u0120bath", "7838": "\u0120noise", "7839": "title", "7840": "\u0120northern", "7841": "Part", "7842": "\u0120magn", "7843": "\u0120fab", "7844": "\u0120Ash", "7845": "\u0120displ", "7846": "\u0120ticket", "7847": "\u0120murd", "7848": "\u0120alongside", "7849": "\u0120Music", "7850": "\u0120river", "7851": "\u0120Steel", "7852": "\u0120CL", "7853": "\u0120Player", "7854": "\u0120Mult", "7855": "owing", "7856": "rep", "7857": "size", "7858": "\u0120tur", "7859": "\u0120Georgia", "7860": "iscal", "7861": "raction", "7862": "\u0120cable", "7863": "\u012059", "7864": "\u0120wins", "7865": "\u0120upcoming", "7866": "\u0120survive", "7867": "\u0120inspired", "7868": "\u0120Education", "7869": "\u0120statistics", "7870": "\u0120Foot", "7871": "iami", "7872": "\u0120yellow", "7873": "\u0120Page", "7874": ".-", "7875": "\u0120Has", "7876": "\u0120urban", "7877": "\u0120ax", "7878": "essel", "7879": "\\\"", "7880": "\u0120quarterback", "7881": "\u0120register", "7882": "\u0120Labor", "7883": "\u0120abilities", "7884": "\u0120Family", "7885": "\u0120variable", "7886": "\u0120Price", "7887": "\u0120contem", "7888": "\u0120thin", "7889": "\u0120Equ", "7890": "data", "7891": "\u0120gotten", "7892": "\u0120constit", "7893": "\u0120asks", "7894": "\u0120tail", "7895": "\u0120exciting", "7896": "\u0120Effect", "7897": "\u0120Spanish", "7898": "\u0120encourage", "7899": "inson", "7900": "\u0120Ah", "7901": "\u0120commitment", "7902": "CS", "7903": "\u0120rally", "7904": "\u0120::", "7905": "\u0120subsid", "7906": "\u0120spin", "7907": "\u0120captured", "7908": "2018", "7909": "\u0120innoc", "7910": "\u0120allegedly", "7911": "\u0120Come", "7912": "\u0120artists", "7913": "\u0120Number", "7914": "\u0120electronic", "7915": "\u0120regional", "7916": "apes", "7917": "\u0120wra", "7918": "\u0120myth", "7919": "prise", "7920": "\u0120Miller", "7921": "\u0120Creat", "7922": "\u0120Episode", "7923": "bell", "7924": "\u0120directed", "7925": "\u0120extract", "7926": "\u0120sorry", "7927": "\u0120vice", "7928": "agger", "7929": "\u0120Support", "7930": "\u012066", "7931": "\u0120Iron", "7932": "\u0120wonderful", "7933": "\u0120gra", "7934": "Net", "7935": "ione", "7936": "Eng", "7937": "\u0120ships", "7938": "ikes", "7939": "\u0120Kevin", "7940": "itar", "7941": "\u0120activists", "7942": "true", "7943": "\u0120Arizona", "7944": "enth", "7945": "\u0120Despite", "7946": "\u0120SE", "7947": "\u0120habit", "7948": "ernel", "7949": "\u0120inqu", "7950": "\u0120abortion", "7951": "\u0120void", "7952": "\u0120explicit", "7953": "\u0120engaged", "7954": "\u0120angry", "7955": "\u0120rating", "7956": "\u0120frag", "7957": "bro", "7958": "icking", "7959": "dev", "7960": "\u0120worried", "7961": "\u0120obser", "7962": "\u0120apartment", "7963": "\u0120GT", "7964": "\u0120estate", "7965": "\u0120Constitution", "7966": "emon", "7967": "\u0120Snow", "7968": "\u0120county", "7969": "\u0120disag", "7970": "\u0120Stephen", "7971": "\u0120immigrants", "7972": "wind", "7973": "\u0120Nations", "7974": "\u0120folks", "7975": "Out", "7976": "\u0120gall", "7977": "\u0120targeted", "7978": "\u0120stead", "7979": "\u0120Bon", "7980": "\u0120Lib", "7981": "\u0120informed", "7982": "\u0120120", "7983": "chain", "7984": "idelines", "7985": "orough", "7986": "\u0120driven", "7987": "\u0120regularly", "7988": "\u0120basket", "7989": "\u0120principle", "7990": "ocument", "7991": "\u0120stun", "7992": "ibilities", "7993": "\u0120Roman", "7994": "\u0120About", "7995": "\u0120alert", "7996": "\u0120democracy", "7997": "\u0120represented", "7998": "HS", "7999": "cers", "8000": "parent", "8001": "Art", "8002": "pack", "8003": "\u0120diplom", "8004": "rets", "8005": "\u0120NO", "8006": "\u0120capture", "8007": "\u0120Adv", "8008": "\u0126\u00a2", "8009": "\u0120announcement", "8010": "\u0120Lear", "8011": "\u0120hook", "8012": "\u0120purs", "8013": "\u0120Such", "8014": "\u0120Camer", "8015": "\u0120refugees", "8016": "\u0120Ve", "8017": "Pol", "8018": "\u0120recognized", "8019": "lib", "8020": "\u0120hadn", "8021": "Ass", "8022": "\u0120pilot", "8023": "ushing", "8024": "\u0120returning", "8025": "\u0120trail", "8026": "\u0120Stone", "8027": "\u0120routine", "8028": "\u0120courts", "8029": "\u0120desper", "8030": "\u0120friendly", "8031": "\u0120Italy", "8032": "\u0120pled", "8033": "\u0120breath", "8034": "\u0120studio", "8035": "NS", "8036": "\u0120impressive", "8037": "\u0120Afghanistan", "8038": "\u0120fing", "8039": "\u0120downt", "8040": "inking", "8041": "\u0120Rog", "8042": "iary", "8043": "color", "8044": "sex", "8045": "aron", "8046": "\u0120fault", "8047": "\u0120Nick", "8048": "Down", "8049": "\u0120Rose", "8050": "\u0120Southern", "8051": "XX", "8052": "isodes", "8053": "List", "8054": "600", "8055": "\u0120outcome", "8056": "err", "8057": "\u0120elsewhere", "8058": "\u0120retire", "8059": "\u0120pounds", "8060": "\u0120Global", "8061": "People", "8062": "\u0120communications", "8063": "\u0120loan", "8064": "\u0120ratio", "8065": "\u0120Empire", "8066": "\u0120gonna", "8067": "\u0120invent", "8068": "DF", "8069": "\u01201970", "8070": "\u0120Common", "8071": "pat", "8072": "\u0120promised", "8073": "\u0120dinner", "8074": "\u0120Hom", "8075": "\u0120creates", "8076": "\u0120operate", "8077": "verty", "8078": "\u0120Jordan", "8079": "etime", "8080": "\u0120sustain", "8081": "Reg", "8082": "\u0120incredible", "8083": "ima", "8084": "\u0120warrant", "8085": "\u0120mm", "8086": "Att", "8087": "\u0120lawsuit", "8088": "\u0120reviews", "8089": "iture", "8090": "\u0120Source", "8091": "lights", "8092": "\u0120Ford", "8093": "\u012063", "8094": "group", "8095": "store", "8096": "\u0120featured", "8097": "\u0120forever", "8098": "\u0120poverty", "8099": "\u0120Pop", "8100": "\u0120CNN", "8101": "azz", "8102": "abis", "8103": "aching", "8104": "\u0120laid", "8105": "\u0120Supp", "8106": "\u0120filter", "8107": "ena", "8108": "\u0120Community", "8109": "\u0120creatures", "8110": "uction", "8111": "\u0120Royal", "8112": "\u0120association", "8113": "\u0120Connect", "8114": "\u0120Brad", "8115": "\u00e2\u0138\u012a", "8116": "lers", "8117": "there", "8118": "\u0120Gi", "8119": "\u0120valuable", "8120": "ACK", "8121": "\u0120Taylor", "8122": "\u0120liquid", "8123": "\u0120Attorney", "8124": "\u0120Carl", "8125": "\u0120Final", "8126": "aga", "8127": "\u0120Wilson", "8128": "Because", "8129": "\u0120Professor", "8130": "aka", "8131": "\u0120incredibly", "8132": "rance", "8133": "!)", "8134": "Ref", "8135": "sk", "8136": "\u0120solutions", "8137": "\u0120atmosphere", "8138": "\u0120blame", "8139": "umes", "8140": "\u0120Nob", "8141": "CA", "8142": "umps", "8143": "rical", "8144": "\u0120Putin", "8145": "\u0120Dest", "8146": "oric", "8147": "\u0120PA", "8148": "\u0120respectively", "8149": "wan", "8150": "\u0120fifth", "8151": "\u00e2\u0126\u00a2", "8152": "\u0120Cry", "8153": "\u0120governor", "8154": "resident", "8155": "\u0120purchased", "8156": "\u0120hack", "8157": "\u0120intense", "8158": "obs", "8159": "\u0120origin", "8160": "\u0120define", "8161": "\u0120careful", "8162": "***", "8163": "\u0120shoulder", "8164": "Click", "8165": "\u0120tied", "8166": "\u0120destruction", "8167": "oured", "8168": "\u0120nobody", "8169": "\u0120ho", "8170": "\u0120Exper", "8171": "\u0120tip", "8172": "\";", "8173": "\u0120technique", "8174": "\u0120jur", "8175": "\u0120Pok", "8176": "bow", "8177": "\u0120legend", "8178": "\u0120accord", "8179": "\u0120busy", "8180": "\u0120Intel", "8181": "\u0120hang", "8182": "aki", "8183": ".]", "8184": "\u00e2\u0122\u0136\u00e2\u0122\u0136\u00e2\u0122\u0136\u00e2\u0122\u0136", "8185": "\u0120surgery", "8186": "\u0120reprodu", "8187": "\u0120uniform", "8188": "\u0120scenes", "8189": "code", "8190": "\u012062", "8191": "lisher", "8192": "\u0120Have", "8193": "phia", "8194": "\u0120crypt", "8195": "\u0120recon", "8196": "\u0120scream", "8197": "\u0120adopted", "8198": "\u0120scores", "8199": "Ne", "8200": "\u0120Italian", "8201": "including", "8202": "BO", "8203": "\u0120indicated", "8204": "\u0120entertain", "8205": "Gu", "8206": "Text", "8207": "iel", "8208": "\u0120twenty", "8209": "\u0120engage", "8210": "offs", "8211": "\u0120Pacific", "8212": "\u0120smile", "8213": "\u0120personnel", "8214": "\u0120toler", "8215": "\u0120doors", "8216": "\u0120tone", "8217": "\u0120machines", "8218": "\u0120entering", "8219": "tenance", "8220": "CO", "8221": "\u0120Jersey", "8222": "\u0120forest", "8223": "\u0120horse", "8224": "\u0120complaint", "8225": "\u0120Spring", "8226": "yo", "8227": "\u0120Plus", "8228": "eding", "8229": "\u0120Return", "8230": "quarters", "8231": "ials", "8232": "cow", "8233": "\u0120academic", "8234": "\u0120fruit", "8235": "\u01201996", "8236": "ogether", "8237": "\u0120wine", "8238": "\u0120pursu", "8239": "\u0120Steven", "8240": "\u0120licens", "8241": "Who", "8242": "\u0120clothes", "8243": "rection", "8244": "\u0120squad", "8245": "\u0120stable", "8246": "\u0120raw", "8247": "zens", "8248": "Star", "8249": "uties", "8250": "ancer", "8251": "\u0120keys", "8252": "\u0120Mu", "8253": "\u0120complicated", "8254": "iger", "8255": "\u0120Text", "8256": "\u0120absor", "8257": "\u012068", "8258": "\u0120funny", "8259": "\u0120relief", "8260": "\u0120Lew", "8261": "\u0120Cook", "8262": "\u0120chart", "8263": "\u0120drawing", "8264": "GE", "8265": "\u0120module", "8266": "\u0120Bull", "8267": "ILL", "8268": "\u0120salt", "8269": "00000000", "8270": "ille", "8271": "\u0120resource", "8272": "away", "8273": "adelphia", "8274": "\u0120Bru", "8275": "\u012067", "8276": "\u0120somebody", "8277": "\u0120participate", "8278": "\u0120rose", "8279": "wered", "8280": "\u0120muscle", "8281": "\u0120consent", "8282": "\u0120continuing", "8283": "\u0120Guardian", "8284": "\u0120Order", "8285": "regon", "8286": "\u0120rear", "8287": "\u0120provision", "8288": "\u0120liked", "8289": "rient", "8290": "\u0120bra", "8291": "Trans", "8292": "\u0120meetings", "8293": "\u0120tox", "8294": "\u0120convent", "8295": "\u0120auto", "8296": "\u0120recording", "8297": "\u0120Soft", "8298": "001", "8299": "\u0120Roll", "8300": "\u0120programming", "8301": "\u0120pic", "8302": "\u0120proved", "8303": "\u0120stab", "8304": "\u0120Ast", "8305": "\u0120caption", "8306": "ulating", "8307": "\u0120Attack", "8308": "\u0120newly", "8309": "\u01201997", "8310": "fr", "8311": "\u0120discipl", "8312": "\u0120Greek", "8313": "\u0120edition", "8314": "\u0120Does", "8315": "\u0120Box", "8316": "ifle", "8317": "acket", "8318": "\u0120passes", "8319": "\u0120guest", "8320": "\u0120acceler", "8321": "itals", "8322": "UD", "8323": "\u0120authent", "8324": "\u0120Rest", "8325": "oval", "8326": "ta", "8327": "uine", "8328": "\u0120armor", "8329": "\u0120Town", "8330": "\u0120compat", "8331": "\u0120inches", "8332": "Despite", "8333": "\u0120assign", "8334": "herent", "8335": "\u0120prepare", "8336": "\u0120Meg", "8337": "ockey", "8338": "\u0120depends", "8339": "\u0120tracks", "8340": "watch", "8341": "\u0120lists", "8342": "\u0120Northern", "8343": "\u0120alter", "8344": "rec", "8345": "\u0120Eastern", "8346": "\u0120condem", "8347": "\u0120everywhere", "8348": "?'", "8349": "\u0120affili", "8350": "\u0120fought", "8351": "\":{\"", "8352": "\u0120mac", "8353": "itarian", "8354": "\u0120scope", "8355": "\u0120AL", "8356": "aws", "8357": "arms", "8358": "\u0120que", "8359": "\u0120enjoyed", "8360": "nesota", "8361": "\u0120aggressive", "8362": "\u0120Story", "8363": "\u0120IV", "8364": "\u0120recipe", "8365": "\u0120rarely", "8366": "\u0120Medical", "8367": "value", "8368": "angel", "8369": "aying", "8370": "omething", "8371": "\u0120subsection", "8372": "\u0120southern", "8373": "\u0120frequency", "8374": "rete", "8375": "rolled", "8376": "ults", "8377": "\u0120Nic", "8378": "\u0120behalf", "8379": "\u0120sequence", "8380": "abet", "8381": "\u0120controversial", "8382": "\u0120comprom", "8383": "\u0120worker", "8384": "\u0120mainly", "8385": "\u0120algorith", "8386": "\u0120Major", "8387": "orce", "8388": "gender", "8389": "\u0120organized", "8390": "\u0120fake", "8391": "\u0120concluded", "8392": "\u0120ED", "8393": "\u0120Exec", "8394": "rage", "8395": "\u0120chances", "8396": "berry", "8397": "\u0120Trad", "8398": "\u0120configuration", "8399": "\u0120withdraw", "8400": "\u0120fro", "8401": "udes", "8402": "\u0120Brother", "8403": "\u0120Brian", "8404": "\u0120tries", "8405": "\u0120samples", "8406": "\u0120bid", "8407": "\u0120Golden", "8408": "\u0120photograph", "8409": "ifest", "8410": "\u0120DO", "8411": "\u0120Parliament", "8412": "****************", "8413": "Rem", "8414": "\u0120contest", "8415": "\u0120signing", "8416": "px", "8417": "\u0120Zeal", "8418": "\u00e2\u0136\u0122\u00e2\u0136\u0122", "8419": "Ear", "8420": "\u0120exit", "8421": "Before", "8422": "\u0120Corpor", "8423": "null", "8424": "month", "8425": "\u0120racial", "8426": "otted", "8427": "\u0120Veg", "8428": "\u0120Reuters", "8429": "\u0120sword", "8430": "pson", "8431": "\u0120Romney", "8432": "aed", "8433": "\u0120trib", "8434": "\u0120inner", "8435": "\u0120protocol", "8436": "\u0120Bi", "8437": "\u0120Miami", "8438": "everal", "8439": "press", "8440": "\u0120shipping", "8441": "\u0120Amendment", "8442": "\u0120Howard", "8443": "connect", "8444": "\u0120Disc", "8445": "\u0120Jac", "8446": "iamond", "8447": "\u0120Therefore", "8448": "ses", "8449": "\u0120Princess", "8450": "\u0120USB", "8451": "\u0120Anth", "8452": "\u0120surveillance", "8453": "\u0120apolog", "8454": "\u012061", "8455": "owa", "8456": "\u0120fulf", "8457": "js", "8458": "\u0120luck", "8459": "usted", "8460": "\u0120\u00c2\u00a7", "8461": "ni", "8462": "\u0120anticip", "8463": "eman", "8464": "\u0120winner", "8465": "\u0120silver", "8466": "lla", "8467": "icity", "8468": "\u0120unusual", "8469": "\u0120crack", "8470": "\u0120ties", "8471": "ez", "8472": "\u0120practical", "8473": "\u0120province", "8474": "\u0120Place", "8475": "\u0120priority", "8476": "ICE", "8477": "\u0120describes", "8478": "\u0120branch", "8479": "Form", "8480": "aska", "8481": "missions", "8482": "bi", "8483": "\u0120porn", "8484": "\u0120Turk", "8485": "\u0120enthus", "8486": "\u0120fighters", "8487": "\u012008", "8488": "\u0120Detroit", "8489": "\u0120foundation", "8490": "avid", "8491": "Are", "8492": "\u0120judgment", "8493": "cling", "8494": "\u0120solve", "8495": "\u0120Design", "8496": "Where", "8497": "hesis", "8498": "\u0120Tro", "8499": "after", "8500": "\u0120neutral", "8501": "\u0120Palestinian", "8502": "\u0120Hollywood", "8503": "\u0120advis", "8504": "\u0120Non", "8505": "yes", "8506": "olis", "8507": "\u0120reputation", "8508": "\u0120smell", "8509": "\u0120bread", "8510": "\u0120Bul", "8511": "\u0120Beach", "8512": "\u0120claiming", "8513": "\u0120genetic", "8514": "\u0120technologies", "8515": "\u0120upgrade", "8516": "rows", "8517": "\u0120developer", "8518": "\u0120Josh", "8519": "\u0120Disney", "8520": "erved", "8521": "ipal", "8522": "\u0120unex", "8523": "\u0120barely", "8524": "then", "8525": "\u0120Pub", "8526": "\u0120illness", "8527": "etary", "8528": "\u0120Bal", "8529": "\u0120patch", "8530": "\u0120butt", "8531": "\u0120stupid", "8532": "\u0120Dog", "8533": "\u0120Dallas", "8534": "front", "8535": "iece", "8536": "\u0120protests", "8537": "\u0120chat", "8538": "oenix", "8539": "\u0120wing", "8540": "\u0120parliament", "8541": "\u012077", "8542": "osexual", "8543": "\u0120render", "8544": "ptions", "8545": "\u0120Coast", "8546": "osa", "8547": "\u0120Greg", "8548": "hop", "8549": "\u0120Management", "8550": "\u0120bitcoin", "8551": "\u0120recover", "8552": "\u0120incorpor", "8553": "orne", "8554": "\u0120Using", "8555": "\u0120preced", "8556": "\u0120threatened", "8557": "\u0120spiritual", "8558": "\u0120Event", "8559": "\u0120Fred", "8560": "\u0120advertising", "8561": "\u0120improvements", "8562": "\u0120Custom", "8563": "\u0120errors", "8564": "\u0120sensitive", "8565": "\u0120Navy", "8566": "\u0120cream", "8567": "Look", "8568": "\u0120exclusive", "8569": "\u0120comprehens", "8570": "\u0120deleg", "8571": "\u0120conce", "8572": "\u0120remem", "8573": "\u0120structures", "8574": "\u0120stored", "8575": "ND", "8576": "\u01201000", "8577": "UP", "8578": "\u0120Budd", "8579": "AF", "8580": "woman", "8581": "\u0120Academy", "8582": "\u00f0\u0141", "8583": "sea", "8584": "\u0120temporary", "8585": "About", "8586": "esters", "8587": "\u0120tickets", "8588": "\u0120possess", "8589": "inch", "8590": "oz", "8591": "\u0120la", "8592": "\u0120contracts", "8593": "\u0120unp", "8594": "\u0120cig", "8595": "\u0120Kat", "8596": "ultural", "8597": "asm", "8598": "\u0120mountain", "8599": "\u0120Captain", "8600": "Step", "8601": "making", "8602": "\u0120Spain", "8603": "\u0120equally", "8604": "\u0120lands", "8605": "aters", "8606": "\u0120rejected", "8607": "era", "8608": "imm", "8609": "rix", "8610": "CD", "8611": "\u0120transaction", "8612": "gener", "8613": "lessly", "8614": "\u0120||", "8615": "\u0120cos", "8616": "\u0120Henry", "8617": "\u0120provisions", "8618": "\u0120gained", "8619": "\u0120directory", "8620": "\u0120raising", "8621": "\u0120Sep", "8622": "olen", "8623": "onder", "8624": "\u0120console", "8625": "inst", "8626": "\u0120bom", "8627": "\u0120uncertain", "8628": "150", "8629": "ocking", "8630": "\u0120measured", "8631": "\u0120plain", "8632": "\u0120seats", "8633": "\u0120dict", "8634": "SL", "8635": "afe", "8636": "\u0120estimate", "8637": "izon", "8638": "athered", "8639": "\u0120contributed", "8640": "\u0120episodes", "8641": "ommod", "8642": "Gr", "8643": "ANT", "8644": "\u012069", "8645": "Gener", "8646": "\u0120250", "8647": "viously", "8648": "rogen", "8649": "\u0120terrorism", "8650": "\u0120movements", "8651": "entle", "8652": "ounce", "8653": "\u0120Soul", "8654": "\u0120prev", "8655": "\u0120Table", "8656": "acts", "8657": "riors", "8658": "tab", "8659": "\u0120suffer", "8660": "\u0120nerv", "8661": "\u0120mainstream", "8662": "\u0120Wolf", "8663": "\u0120franchise", "8664": "bat", "8665": "\u0120demands", "8666": "\u0120agenda", "8667": "\u0120dozen", "8668": "\u0120clinical", "8669": "izard", "8670": "\u0120Op", "8671": "td", "8672": "\u0120visited", "8673": "\u0120Perhaps", "8674": "\u0120actor", "8675": "\u0120delic", "8676": "\u0120contribute", "8677": "\u0120inject", "8678": "\u0120Es", "8679": "acco", "8680": "\u0120listening", "8681": "\u0120congress", "8682": "ependent", "8683": "\u0120premium", "8684": "\u012076", "8685": "\u0120Irish", "8686": "\u0120assigned", "8687": "\u0120Phys", "8688": "\u0120worldwide", "8689": "\u0120narrative", "8690": "otype", "8691": "mont", "8692": "base", "8693": "\u0120Bowl", "8694": "\u0120Administration", "8695": "\u0120relation", "8696": "\u0120EV", "8697": "CP", "8698": "\u0120covers", "8699": "\u012078", "8700": "\u0120certific", "8701": "\u0120grass", "8702": "\u012004", "8703": "piracy", "8704": "ira", "8705": "\u0120engineering", "8706": "\u0120Mars", "8707": "\u0120unemploy", "8708": "\u0120Foreign", "8709": "stract", "8710": "\u0120ven", "8711": "\u0120steal", "8712": "\u0120replied", "8713": "\u0120ultimate", "8714": "\u0120titles", "8715": "dated", "8716": "\u0120joy", "8717": "aus", "8718": "\u0120hyper", "8719": "aku", "8720": "\u0120officially", "8721": "\u0120Product", "8722": "\u0120difficulty", "8723": "peror", "8724": "\u0120resulted", "8725": "ribed", "8726": "link", "8727": "who", "8728": "~~~~", "8729": "\u0120Speed", "8730": "\u0120Viet", "8731": "Wind", "8732": "\u0120Barack", "8733": "\u0120restrictions", "8734": "\u0120Share", "8735": "\u01201995", "8736": "itionally", "8737": "\u0120beauty", "8738": "opt", "8739": "\u0120maps", "8740": "\u0120CR", "8741": "\u0120Nation", "8742": "\u0120Cruz", "8743": "Will", "8744": "\u0120electricity", "8745": "\u0120org", "8746": "\u0120burd", "8747": "\u0120violation", "8748": "\u0120usage", "8749": "\u0120permit", "8750": "\u0120Chron", "8751": "\u0120Fant", "8752": "\u0120naturally", "8753": "\u012007", "8754": "\u0120thrown", "8755": "\u0120Awoken", "8756": "\u0120alien", "8757": "\u0120Hero", "8758": "\u0120Kent", "8759": "\u0120Rick", "8760": "rike", "8761": "\u0120pace", "8762": "},{\"", "8763": "GL", "8764": "\u0120poison", "8765": "\u0120Tower", "8766": "\u0120formal", "8767": "alysis", "8768": "\u0120genuine", "8769": "\u0120kil", "8770": "aver", "8771": "\u0120procedure", "8772": "\u0120Prop", "8773": "intendo", "8774": "\u0120Main", "8775": "asant", "8776": "\u0120trained", "8777": "Game", "8778": "\u0120Load", "8779": "\u0120MA", "8780": "\u0120crucial", "8781": "\u0120lets", "8782": "\u0120FR", "8783": "\u0120champion", "8784": "101", "8785": "\u0120Conference", "8786": "\u0120writers", "8787": "\u0120connections", "8788": "\u0120okay", "8789": "irms", "8790": "\u0120Rand", "8791": "\u0120encounter", "8792": "\u0120Buff", "8793": "\u0120achieved", "8794": "\u0120checks", "8795": "iscons", "8796": "\u0120assistant", "8797": "\u0120whenever", "8798": "\u0120Access", "8799": "\u0120Ur", "8800": "bin", "8801": "\u0120clock", "8802": "isp", "8803": "opher", "8804": "\u0120borrow", "8805": "\u0120mad", "8806": "\u0120personality", "8807": "only", "8808": "IST", "8809": "abama", "8810": "\u0120gains", "8811": "\u0120commonly", "8812": "\u0120terr", "8813": "\u0120hypot", "8814": "\u0120rely", "8815": "\u0120tiss", "8816": "isconsin", "8817": "\u0120ridic", "8818": "function", "8819": "\u0120Oregon", "8820": "\u0120uncom", "8821": "rating", "8822": "eland", "8823": "\u0120NC", "8824": "\u0120moon", "8825": "annon", "8826": "\u0120vulnerable", "8827": "utive", "8828": "\u00c2\u0142\u00c2\u0142\u00c2\u0142\u00c2\u0142", "8829": "\u0120Radio", "8830": "\u0120western", "8831": "sect", "8832": "\u0120Tony", "8833": "\u0120occurs", "8834": "\u0120Os", "8835": "\u0120Hon", "8836": "\u00c3\u0143", "8837": "\u0120vessel", "8838": "\u0120Scotland", "8839": "\u0120discrimination", "8840": "\u0120subsequent", "8841": "string", "8842": "\u0120fantasy", "8843": "\u0120Shadow", "8844": "\u0120testim", "8845": "WE", "8846": "iti", "8847": "ras", "8848": "\u0120boat", "8849": "\u0120marks", "8850": "\u0120ordinary", "8851": "\u0120ren", "8852": "\u0120representative", "8853": "\u0120petition", "8854": "\u012073", "8855": "\u0120adventure", "8856": "\u0120ignore", "8857": "\u0120Philadelphia", "8858": "\u0120Sav", "8859": "VP", "8860": "\u0120factory", "8861": "\u0120tasks", "8862": "\u0120depression", "8863": "zed", "8864": "................................", "8865": "\u0120Storm", "8866": "\u0120cogn", "8867": "\u0120eligible", "8868": "\u0120reducing", "8869": "via", "8870": "\u012005", "8871": "\u0120striking", "8872": "\u0120dollar", "8873": "ho", "8874": "OV", "8875": "\u0120instrument", "8876": "\u0120philosophy", "8877": "\u0120Moore", "8878": "\u0120Avenue", "8879": "\u0120ruled", "8880": "\u0120Front", "8881": "INE", "8882": "\u0120Mah", "8883": "\u0120scenario", "8884": "\u0120NASA", "8885": "\u0120enorm", "8886": "\u0120debut", "8887": "\u0120tea", "8888": "Today", "8889": "\u0120absence", "8890": "Sim", "8891": "\u0120ham", "8892": "leep", "8893": "\u0120tables", "8894": "\u0120Heart", "8895": "MI", "8896": "Ke", "8897": "requ", "8898": "VD", "8899": "map", "8900": "\u0120chairman", "8901": "\u0120pump", "8902": "\u0120rapidly", "8903": "vi", "8904": "\u0120substantial", "8905": "EP", "8906": "des", "8907": "chant", "8908": "ilipp", "8909": "\u0120Santa", "8910": "riers", "8911": "anchester", "8912": "Load", "8913": "\u0120Case", "8914": "\u0120saving", "8915": "\u012074", "8916": "\u0120AFP", "8917": "erning", "8918": "ounced", "8919": "\u0120Minnesota", "8920": "\u0120Was", "8921": "\u0120recru", "8922": "\u0120assessment", "8923": "\u0120Bron", "8924": "UE", "8925": "\u0120dynamic", "8926": "\u0120furn", "8927": "ulator", "8928": "\u0120propag", "8929": "high", "8930": "\u0120accommod", "8931": "\u0120stack", "8932": "\u0120Sus", "8933": "writ", "8934": "\u0120reven", "8935": "\u0120Godd", "8936": "\u0120Zealand", "8937": "abs", "8938": "\u0120brut", "8939": "\u0120perpet", "8940": "hot", "8941": "\u0120hardly", "8942": "\u0120Burn", "8943": "\u00e3\u0124\u00b9", "8944": "\u0120sty", "8945": "\u0120transactions", "8946": "\u0120gate", "8947": "\u0120screens", "8948": "\u0120submitted", "8949": "\u0120101", "8950": "\u0120languages", "8951": "ught", "8952": "emen", "8953": "\u0120falls", "8954": "\u0120coc", "8955": "\u0124\u00ac", "8956": "\u0120strikes", "8957": "pa", "8958": "\u0120deliber", "8959": "\u0120IM", "8960": "\u0120relax", "8961": "annels", "8962": "\u0120Senator", "8963": "\u0120extrem", "8964": "\u0120},", "8965": "\u0120Deb", "8966": "\u0120bell", "8967": "\u0120disorder", "8968": "cut", "8969": "\u0120iOS", "8970": "\u0120locked", "8971": "\u0120emissions", "8972": "\u0120shortly", "8973": "\"]", "8974": "\u0120Judge", "8975": "\u0120Sometimes", "8976": "\u0120rival", "8977": "\u0120dust", "8978": "\u0120reaching", "8979": "File", "8980": "\u00c2\u00af\u00c2\u00af\u00c2\u00af\u00c2\u00af", "8981": "inois", "8982": "\u0120Jason", "8983": "\u0120satell", "8984": "aret", "8985": "\u0120stations", "8986": "\u0120agric", "8987": "\u0120Technology", "8988": "comes", "8989": "\u0120Unfortunately", "8990": "\u0120Children", "8991": "\u0120applies", "8992": "asted", "8993": "\u0120anger", "8994": "ailability", "8995": "\u0120Damage", "8996": "\u0120compare", "8997": "\u0120Standard", "8998": "\u0120aimed", "8999": "\u0120Ba", "9000": "anguage", "9001": "\u0120regulation", "9002": "\u0120jury", "9003": "\u0120airport", "9004": "\u0120sections", "9005": "\u0120Prince", "9006": "emed", "9007": "\u0120medicine", "9008": "\u0120hitting", "9009": "\u0120spark", "9010": "olves", "9011": "\u0120ads", "9012": "State", "9013": "\u0120foods", "9014": "\u0120replacement", "9015": "\u0120chicken", "9016": "\u0120lowest", "9017": "\u0120minds", "9018": "\u0120involves", "9019": "ui", "9020": "\u0120arrang", "9021": "\u0120procedures", "9022": "\u0120Which", "9023": "iversary", "9024": "\u0120bills", "9025": "\u0120improvement", "9026": "\u0120inev", "9027": "\u0120expectations", "9028": "\u0120intellectual", "9029": "\u0120spaces", "9030": "\u0120mechanism", "9031": "250", "9032": "break", "9033": "\u0120Ze", "9034": "\u0120Tenn", "9035": "\u0120Balt", "9036": "\u0120barrel", "9037": "\u0120static", "9038": "mann", "9039": "Police", "9040": "\u0120tips", "9041": "\u0120handling", "9042": "cus", "9043": "oded", "9044": "ilton", "9045": "iry", "9046": "\u0120journalists", "9047": "ourse", "9048": "\u0120comic", "9049": "\u0120nomine", "9050": "ITY", "9051": "\u0120versus", "9052": "\u0120loop", "9053": "\u0120surf", "9054": "\u0120Indust", "9055": "\u0120Hunter", "9056": "\u0120beliefs", "9057": "isan", "9058": "\u0120setup", "9059": "\u0120brew", "9060": "image", "9061": "\u0120computers", "9062": "fol", "9063": "},\"", "9064": "\u0120Medal", "9065": "\u0120taxp", "9066": "\u0120displayed", "9067": "\u0120grav", "9068": "\u0120fiscal", "9069": "Mon", "9070": "\u0120Moscow", "9071": "\u0120Kong", "9072": "\u0120Centre", "9073": "\u0120cameras", "9074": "\u0120Mrs", "9075": "\u0120Hay", "9076": "\u0120aver", "9077": "\u0120Kelly", "9078": "py", "9079": "\u0120requirement", "9080": "\u0120entitled", "9081": "ombie", "9082": "\u0120shadow", "9083": "agic", "9084": "\u0120Ak", "9085": "\u0120elite", "9086": "\u0120divided", "9087": "\u0120heading", "9088": "\u0120copies", "9089": "\u0120losses", "9090": "\u0120vit", "9091": "ked", "9092": "\u0120Bry", "9093": "\u0120ans", "9094": "\u0120Steam", "9095": "\u0120reporter", "9096": "heim", "9097": "\u0120Item", "9098": "\u0120superior", "9099": "don", "9100": "erent", "9101": "\u00c3\u00b6", "9102": "\u0120therapy", "9103": "\u0120peak", "9104": "\u0120Model", "9105": "\u0120lying", "9106": "\u0120gam", "9107": "zer", "9108": "ritten", "9109": "\u0120responses", "9110": "\u0120consideration", "9111": "\u0120Bible", "9112": "\u0120loyal", "9113": "\u0120instant", "9114": "\u0120pm", "9115": "\u0120Forest", "9116": "\u00c3\u00bc", "9117": "\u0120extend", "9118": "\u0120convicted", "9119": "\u0120founder", "9120": "\u0120convin", "9121": "\u0120Oak", "9122": "check", "9123": "\u0120scholars", "9124": "ped", "9125": "\u0120overse", "9126": "Top", "9127": "count", "9128": "\u0120Ark", "9129": "\u00c2\u00b7", "9130": "\u012006", "9131": "\u0120LA", "9132": "md", "9133": "\u0120Latin", "9134": "imental", "9135": "\u0120CPU", "9136": "\u0120substance", "9137": "\u0120minority", "9138": "\u0120manufacturing", "9139": "Er", "9140": "ocolate", "9141": "\u0120attended", "9142": "\u0120Manager", "9143": "rations", "9144": "\u0120appreciate", "9145": "omy", "9146": "GBT", "9147": "idency", "9148": "BL", "9149": "\u0120guarantee", "9150": "position", "9151": "\u0120ocean", "9152": "clude", "9153": "\u0120headed", "9154": "\u0120tape", "9155": "\u0120loose", "9156": "\u0120logic", "9157": "\u0120proven", "9158": "\u0120spir", "9159": "\u0120admit", "9160": "isa", "9161": "\u0120investigate", "9162": "\u01201994", "9163": "sylv", "9164": "\u0120Lost", "9165": "cest", "9166": "\u012071", "9167": "\u0120requested", "9168": "\u0120windows", "9169": "\u0120Pok\u00c3\u00a9", "9170": "\u0120Without", "9171": "Met", "9172": "\u0120behaviour", "9173": "\u0120reader", "9174": "\u0120hung", "9175": "\u0120Keep", "9176": "\u0120roles", "9177": "\u0120implemented", "9178": "\u0120blank", "9179": "\u0120serves", "9180": "\u0120Jay", "9181": "\u0120cited", "9182": "\u0120Friend", "9183": "profit", "9184": "apon", "9185": "\u0120repair", "9186": "item", "9187": "arrass", "9188": "\u0120critics", "9189": "adi", "9190": "\u0120Father", "9191": "\u0120shout", "9192": "\u0120fool", "9193": "\u012088", "9194": "\u0120producing", "9195": "\u0120lib", "9196": "\u0120rounds", "9197": "\u0120circle", "9198": "\u0120prepar", "9199": "\u0120submit", "9200": "\u0120nic", "9201": "morrow", "9202": "\u00e3\u0125\u00ab", "9203": "Under", "9204": "\u0120vital", "9205": "atern", "9206": "\u0120password", "9207": "\u0120publication", "9208": "\u0120prominent", "9209": "\u0120speaks", "9210": "\u0120bars", "9211": "\u0120deeper", "9212": "\u0120Mill", "9213": "ported", "9214": "\u0120wid", "9215": "\u0120butter", "9216": "\u0120smoking", "9217": "\u0120indicates", "9218": "Key", "9219": "ropri", "9220": "\u0120File", "9221": "alling", "9222": "asting", "9223": "\u0120Rus", "9224": "\u0120adj", "9225": "\u012079", "9226": "aval", "9227": "\u0120presum", "9228": "burgh", "9229": "onic", "9230": "\u0120fur", "9231": "\u0120polls", "9232": "ika", "9233": "\u0120secondary", "9234": "\u0120monster", "9235": "igs", "9236": "\u0120Current", "9237": "Event", "9238": "\u0120ownership", "9239": "endar", "9240": "\u0120arrive", "9241": "\u0120Tax", "9242": "\u0120null", "9243": "\u0120Priv", "9244": "\u0120thro", "9245": "\u0120kiss", "9246": "cat", "9247": "\u0120upset", "9248": "angle", "9249": "itches", "9250": "ector", "9251": "ologists", "9252": "\u0120Galaxy", "9253": "\u0120corruption", "9254": "\u0120hint", "9255": "enter", "9256": "\u0120Hospital", "9257": "\u0120greatly", "9258": "\u0120begun", "9259": "esy", "9260": "\u0120soil", "9261": "\u0120Anton", "9262": "\u0120maintenance", "9263": "\u00e3\u0125\u00a9", "9264": "\u0120dozens", "9265": "\u0120humanity", "9266": "\u0120Alabama", "9267": "\u0120rom", "9268": "worth", "9269": "aping", "9270": "sylvania", "9271": "lah", "9272": "\u0120gathered", "9273": "GA", "9274": "\u0120attacking", "9275": "found", "9276": "\u0120Square", "9277": "\u0120arbit", "9278": "ictions", "9279": "\u0120Wisconsin", "9280": "\u0120dance", "9281": "\u0120Saint", "9282": "archy", "9283": "\u0120baseball", "9284": "\u0120contributions", "9285": "\u0120literature", "9286": "\u0120exha", "9287": "perty", "9288": "test", "9289": "\u0120bab", "9290": "\u0120container", "9291": "letter", "9292": "\u0120fallen", "9293": "\u0120websites", "9294": "\u0120bottle", "9295": "\u0120Sac", "9296": "\u0120breast", "9297": "\u0120PL", "9298": "\u0120veteran", "9299": "\u0120interviews", "9300": "\u0120Ale", "9301": "\u0120banned", "9302": "engers", "9303": "\u0120Revolution", "9304": "inth", "9305": "\u0120concerning", "9306": "IVE", "9307": "\u0120expenses", "9308": "\u0120Matthew", "9309": "\u0120Columbia", "9310": "ds", "9311": "istance", "9312": "\u0120entity", "9313": "...\"", "9314": "\u0120reliable", "9315": "\u0120paralle", "9316": "\u0120Christians", "9317": "\u0120opinions", "9318": "\u0120indu", "9319": "low", "9320": "\u0120compete", "9321": "\u0120thorough", "9322": "\u0120employed", "9323": "\u0120establishment", "9324": "igen", "9325": "\u0120Cro", "9326": "\u0120lawyers", "9327": "\u0120Station", "9328": "TE", "9329": "\u0120Lind", "9330": "\u0120Pur", "9331": "itary", "9332": "\u0120efficiency", "9333": "\u00e2\u0122\u0132", "9334": "\u0120Ly", "9335": "\u0120mask", "9336": "\u0120disaster", "9337": "\u0120ages", "9338": "ERE", "9339": "esis", "9340": "\u0120Hold", "9341": "\u0120casual", "9342": "bled", "9343": "\u0120enabled", "9344": "\u0120Environment", "9345": "\u0120Intelligence", "9346": "iper", "9347": "\u0120Map", "9348": "\u0120BE", "9349": "\u0120emerged", "9350": "isdom", "9351": "\u0120cabin", "9352": "\u0120registration", "9353": "\u0120fingers", "9354": "\u0120roster", "9355": "\u0120framework", "9356": "\u0120Doctor", "9357": "etts", "9358": "\u0120transportation", "9359": "\u0120awareness", "9360": "Her", "9361": "\u0120attempting", "9362": "Off", "9363": "\u0120Store", "9364": "\u00c3\u0125\u00c3\u0124\u00c3\u0125\u00c3\u0124\u00c3\u0125\u00c3\u0124\u00c3\u0125\u00c3\u0124", "9365": "\u0120Know", "9366": "\u0120defence", "9367": "\u0120scan", "9368": "\u0120Ten", "9369": "\u0120Chair", "9370": "\u0120PH", "9371": "\u0120Atlanta", "9372": "\u0120fucking", "9373": "\u0120answered", "9374": "bn", "9375": "\u0120Kar", "9376": "\u0120categories", "9377": "\u0120rational", "9378": "\u0120cust", "9379": "\u0120robot", "9380": "\u0120correctly", "9381": "\u0120gif", "9382": "\u0120graphics", "9383": "mic", "9384": "\u0120grounds", "9385": "\u0120Opp", "9386": "iate", "9387": "\u0120distributed", "9388": "\u0120sanctions", "9389": "\u0120challenging", "9390": "uto", "9391": "\u0120ingredients", "9392": "\u0120invited", "9393": "\u0120founded", "9394": "\u0120Requ", "9395": "ded", "9396": "\u0120bowl", "9397": "\u0120brothers", "9398": "\u0120Ha", "9399": "IO", "9400": "\u0120wages", "9401": "imore", "9402": "ocial", "9403": "\u0120seed", "9404": "atively", "9405": "\u0120addresses", "9406": "\u0120Iowa", "9407": "abeth", "9408": "\u0120attitude", "9409": "isd", "9410": "child", "9411": "\u0120mole", "9412": "\u0120discovery", "9413": "yard", "9414": "Br", "9415": "\u012082", "9416": "\u0120supplies", "9417": "elling", "9418": "\u0120distingu", "9419": "CR", "9420": "\u0120recept", "9421": "\u0120vert", "9422": "\u0120swim", "9423": "bec", "9424": "door", "9425": "\u0120Yeah", "9426": "\u0120gal", "9427": "\u0120interact", "9428": "\u0120ESP", "9429": "\u0120CS", "9430": "amps", "9431": "\u0120convinced", "9432": "\u0120objective", "9433": "\u0120dish", "9434": "\u0120Photos", "9435": "lad", "9436": "\u0120downtown", "9437": "oil", "9438": "inction", "9439": "\u0120tomorrow", "9440": "\u0120COM", "9441": "\u0120survival", "9442": "shot", "9443": "\u0120settlement", "9444": "Cons", "9445": "\u0120Xbox", "9446": "interest", "9447": "\u0120SM", "9448": "argo", "9449": "eness", "9450": "\u0120ethnic", "9451": "bered", "9452": "Min", "9453": "\u0120Tok", "9454": "\u0120incent", "9455": "\u0120Command", "9456": "\u0120maintained", "9457": "\u0120breaks", "9458": "bridge", "9459": "atar", "9460": "agg", "9461": "\u0120Finally", "9462": "unicip", "9463": "\u0120Ont", "9464": "left", "9465": "\u0120recognition", "9466": "\u0120*/", "9467": "\u0120Pers", "9468": "\u0120welf", "9469": "\u0120addressed", "9470": "\u0120Kansas", "9471": "\u0120virus", "9472": "\u0120whereas", "9473": "\u0120papers", "9474": "rams", "9475": "\u0120Ministry", "9476": "\u0120pleasure", "9477": "\u0120acquired", "9478": "\u0120duration", "9479": "jpg", "9480": "\u0120calm", "9481": "\u0120NHL", "9482": "\u0120burning", "9483": "\u0120folder", "9484": "icked", "9485": "\u0120Py", "9486": "\u0120Illinois", "9487": "Class", "9488": "\u0120Goddess", "9489": "\u0120performing", "9490": "\u0120welfare", "9491": "jar", "9492": "Inter", "9493": "\u0120lin", "9494": "\u0120enhance", "9495": "\u0120notion", "9496": "fare", "9497": "ypes", "9498": "\u0120Area", "9499": "\u0120cannabis", "9500": "\u0120Diego", "9501": "fs", "9502": "\u0120Manchester", "9503": "comm", "9504": "inite", "9505": "\u0120covering", "9506": "\u0120Sound", "9507": "\u01201960", "9508": "\u012084", "9509": "elect", "9510": "zing", "9511": "\u0120citizen", "9512": "\u0120phones", "9513": "\u0120raid", "9514": "\u0120ignored", "9515": "\u0120Object", "9516": "\u0120upload", "9517": "card", "9518": "\u0120modified", "9519": "\u0120rooms", "9520": "iah", "9521": "range", "9522": "heast", "9523": "achus", "9524": "\u0120suggesting", "9525": "\u00e2\u0122\u012d", "9526": "grade", "9527": "El", "9528": "\u0120clothing", "9529": "\u0120rh", "9530": "\u0120Han", "9531": "unity", "9532": "encing", "9533": "\u0120Austin", "9534": "secution", "9535": "tra", "9536": "dem", "9537": "\u0120Qual", "9538": "\u0120heaven", "9539": "\u0120stages", "9540": "\u0120wedd", "9541": "plus", "9542": "ificial", "9543": "\u0120Imm", "9544": "\u0120Ho", "9545": "ieties", "9546": "\u0120phrase", "9547": "\u0120brill", "9548": "actory", "9549": "\u0120providers", "9550": "\u0120silence", "9551": "\u0120aer", "9552": "\u0120AI", "9553": "\u0120Adventure", "9554": "\u0120platforms", "9555": "\u0120demonstrated", "9556": "\u0120interf", "9557": "ington", "9558": "\u0120races", "9559": "\u0120grade", "9560": "ultane", "9561": "\u0120Through", "9562": "false", "9563": "\u0120bow", "9564": "\u0120AB", "9565": "\u0120flavor", "9566": "\u0120historic", "9567": "gov", "9568": "\u0120colour", "9569": "\u0120viewed", "9570": "\u0120Email", "9571": "elcome", "9572": "\u0120intervention", "9573": "\u0120diversity", "9574": "\u0120periods", "9575": "\u0120reverse", "9576": "\u0120Very", "9577": "\u0120quote", "9578": "\u0120Left", "9579": "through", "9580": "\u0120screw", "9581": "\u0120landing", "9582": "\u0120pill", "9583": "\u0120wet", "9584": "\u0120protesters", "9585": "\u0120repeat", "9586": "aved", "9587": "erk", "9588": "\u0120salary", "9589": "\u0120Pennsylvania", "9590": "Still", "9591": "\u0120mayor", "9592": "\u0120kitchen", "9593": "\u0120featuring", "9594": "\u0120Museum", "9595": "\u0120Tournament", "9596": "\u0120Fal", "9597": "\u0120servers", "9598": "UC", "9599": "\u0120anybody", "9600": "img", "9601": "\u0120Trade", "9602": "ixture", "9603": "theless", "9604": "\u0120finance", "9605": "\u0120closing", "9606": "\u0120Patri", "9607": "iac", "9608": "abel", "9609": "\u0120>>", "9610": "orous", "9611": "\u0120firms", "9612": "screen", "9613": "una", "9614": "\u0120embarrass", "9615": "ulse", "9616": "\u0120letting", "9617": "\u0120threw", "9618": "iley", "9619": "\u0120channels", "9620": "lan", "9621": "\u0120Vegas", "9622": "\u0120sear", "9623": "\u0120fantastic", "9624": "arre", "9625": "uzzle", "9626": "\u0120Der", "9627": "Those", "9628": "\u0120swing", "9629": "\u0120sheet", "9630": "index", "9631": "cover", "9632": "ogan", "9633": "\u0120variables", "9634": "\u0120Tech", "9635": "\u0120spoken", "9636": "achel", "9637": "\u0120Da", "9638": "\u0120Mountain", "9639": "\u0120loaded", "9640": "\u0120footage", "9641": "version", "9642": "\u0120unl", "9643": "\u0120Phoenix", "9644": "\u0120throwing", "9645": "\u0120firing", "9646": "\u0120tracking", "9647": "\u0120width", "9648": "\u0120struggling", "9649": "rooms", "9650": "otion", "9651": "\u0120monthly", "9652": "\u0120Server", "9653": "\u0120eggs", "9654": "open", "9655": "MC", "9656": "\u01201993", "9657": "\u0120hired", "9658": "\u0120stayed", "9659": "\u0120Allen", "9660": "\u0120stro", "9661": "\u012098", "9662": "step", "9663": "\u0120Turkish", "9664": "\u0120fabric", "9665": "isting", "9666": "\u0120Dom", "9667": "\u0120dates", "9668": "\u0120pron", "9669": "\u0120basketball", "9670": "\u0120lucky", "9671": "\u0120Arabia", "9672": "\u0120assumed", "9673": "esty", "9674": "\u0120affairs", "9675": "\u0120glad", "9676": "\u0120Indeed", "9677": "\u0120FA", "9678": "\u0120Word", "9679": "\u0120joining", "9680": "ifice", "9681": "pread", "9682": "irts", "9683": "\u0120Select", "9684": "\u0120populations", "9685": "aware", "9686": "\u0120nose", "9687": "\u0120complaints", "9688": "start", "9689": "\u0120scoring", "9690": "Thanks", "9691": "\u0120mining", "9692": "\u0120visitors", "9693": "SH", "9694": "\u0120damaged", "9695": "\u0120characteristics", "9696": "\u0120Pent", "9697": "DC", "9698": "\u012083", "9699": "\u0120Six", "9700": "rates", "9701": "\u0120flags", "9702": "\u0120Brew", "9703": "dog",
[...]
